{
  "version": "1.0",
  "truncation": null,
  "padding": {
    "strategy": {
      "Fixed": 30
    },
    "direction": "Right",
    "pad_to_multiple_of": null,
    "pad_id": 0,
    "pad_type_id": 0,
    "pad_token": "[PAD]"
  },
  "added_tokens": [
    {
      "id": 0,
      "content": "<unk>",
      "single_word": false,
      "lstrip": false,
      "rstrip": false,
      "normalized": false,
      "special": true
    }
  ],
  "normalizer": {
    "type": "NFKC"
  },
  "pre_tokenizer": {
    "type": "Metaspace",
    "replacement": "▁",
    "prepend_scheme": "always",
    "split": true
  },
  "post_processor": null,
  "decoder": {
    "type": "Metaspace",
    "replacement": "▁",
    "prepend_scheme": "always",
    "split": true
  },
  "model": {
    "type": "BPE",
    "dropout": null,
    "unk_token": "<unk>",
    "continuing_subword_prefix": null,
    "end_of_word_suffix": null,
    "fuse_unk": false,
    "byte_fallback": false,
    "ignore_merges": false,
    "vocab": {
      "<unk>": 0,
      "!": 1,
      "'": 2,
      "(": 3,
      ")": 4,
      "*": 5,
      ",": 6,
      "-": 7,
      ".": 8,
      "0": 9,
      "1": 10,
      "3": 11,
      "7": 12,
      "?": 13,
      "A": 14,
      "B": 15,
      "C": 16,
      "D": 17,
      "E": 18,
      "F": 19,
      "G": 20,
      "H": 21,
      "I": 22,
      "J": 23,
      "K": 24,
      "L": 25,
      "M": 26,
      "N": 27,
      "O": 28,
      "P": 29,
      "R": 30,
      "S": 31,
      "T": 32,
      "U": 33,
      "V": 34,
      "W": 35,
      "Y": 36,
      "a": 37,
      "b": 38,
      "c": 39,
      "d": 40,
      "e": 41,
      "f": 42,
      "g": 43,
      "h": 44,
      "i": 45,
      "j": 46,
      "k": 47,
      "l": 48,
      "m": 49,
      "n": 50,
      "o": 51,
      "p": 52,
      "r": 53,
      "s": 54,
      "t": 55,
      "u": 56,
      "v": 57,
      "w": 58,
      "x": 59,
      "y": 60,
      "z": 61,
      "▁": 62,
      "業": 63,
      "鈥": 64,
      "锟": 65,
      "�": 66,
      "an": 67,
      "en": 68,
      "er": 69,
      "▁s": 70,
      "▁b": 71,
      "▁m": 72,
      "ang": 73,
      "▁k": 74,
      "ak": 75,
      "ar": 76,
      "at": 77,
      "▁d": 78,
      "in": 79,
      "la": 80,
      "▁t": 81,
      "em": 82,
      "it": 83,
      "▁p": 84,
      "am": 85,
      "▁*": 86,
      "as": 87,
      "eng": 88,
      "un": 89,
      "uk": 90,
      "ik": 91,
      "ap": 92,
      "▁ak": 93,
      "▁A": 94,
      "ya": 95,
      "▁se": 96,
      "ah": 97,
      "ad": 98,
      "is": 99,
      "ku": 100,
      "ita": 101,
      "▁y": 102,
      "engan": 103,
      "▁men": 104,
      "▁yang": 105,
      "▁aku": 106,
      "▁kita": 107,
      "▁j": 108,
      "▁Aku": 109,
      "▁n": 110,
      "al": 111,
      "amu": 112,
      "▁ber": 113,
      "um": 114,
      "tu": 115,
      "ga": 116,
      "▁l": 117,
      "▁h": 118,
      "kan": 119,
      "ih": 120,
      "▁mem": 121,
      "ala": 122,
      "▁ke": 123,
      "isa": 124,
      "▁bisa": 125,
      "ir": 126,
      "▁kamu": 127,
      "▁dan": 128,
      "▁in": 129,
      "▁c": 130,
      "ada": 131,
      "us": 132,
      "ana": 133,
      "il": 134,
      "ari": 135,
      "▁dengan": 136,
      "▁di": 137,
      "ti": 138,
      "tuk": 139,
      "ers": 140,
      "gi": 141,
      "eny": 142,
      "▁un": 143,
      "▁untuk": 144,
      "▁T": 145,
      "eb": 146,
      "enyum": 147,
      "▁K": 148,
      "angat": 149,
      "▁ter": 150,
      "▁ini": 151,
      "▁*m": 152,
      "ung": 153,
      "ela": 154,
      "id": 155,
      "▁memb": 156,
      "el": 157,
      "▁*t": 158,
      "angan": 159,
      "api": 160,
      "▁r": 161,
      "▁ba": 162,
      "ersenyum": 163,
      "ek": 164,
      "lu": 165,
      "ing": 166,
      "im": 167,
      "asa": 168,
      "nya": 169,
      "itu": 170,
      "▁*tersenyum": 171,
      "▁S": 172,
      "es": 173,
      "ur": 174,
      "▁akan": 175,
      "apa": 176,
      "anya": 177,
      "ud": 178,
      "▁sem": 179,
      "dengan": 180,
      "▁*dengan": 181,
      "uga": 182,
      "▁per": 183,
      "▁juga": 184,
      "▁pen": 185,
      "alau": 186,
      "ba": 187,
      "uat": 188,
      "▁nada": 189,
      "et": 190,
      "au": 191,
      "▁bar": 192,
      "ut": 193,
      "▁leb": 194,
      "▁H": 195,
      "enang": 196,
      "▁mer": 197,
      "pa": 198,
      "h,": 199,
      "▁lebih": 200,
      "▁B": 201,
      "▁itu": 202,
      "akan": 203,
      "▁tid": 204,
      "adi": 205,
      "pat": 206,
      "aj": 207,
      "udah": 208,
      "li": 209,
      "on": 210,
      "ant": 211,
      "antu": 212,
      "▁M": 213,
      "▁baru": 214,
      "▁Tapi": 215,
      "i.": 216,
      "▁la": 217,
      "▁kalau": 218,
      "mu": 219,
      "▁E": 220,
      "▁ada": 221,
      "▁ng": 222,
      "ikir": 223,
      "liana": 224,
      "▁Eliana": 225,
      "▁meng": 226,
      "▁I": 227,
      "uh": 228,
      "a.": 229,
      "▁f": 230,
      "gak": 231,
      "▁sek": 232,
      "ungk": 233,
      "ungkin": 234,
      "ara": 235,
      "unj": 236,
      "▁*men": 237,
      "ent": 238,
      "▁meny": 239,
      "an.": 240,
      "uka": 241,
      "▁sam": 242,
      "▁hari": 243,
      "▁tidak": 244,
      "per": 245,
      "▁tem": 246,
      "si": 247,
      "▁har": 248,
      "lah": 249,
      "unjuk": 250,
      "ber": 251,
      "or": 252,
      "▁sangat": 253,
      "lalu": 254,
      "unjukkan": 255,
      "▁si": 256,
      "▁Hm": 257,
      "ikan": 258,
      "▁g": 259,
      "▁suka": 260,
      "alah": 261,
      "elaj": 262,
      "▁ser": 263,
      "ula": 264,
      "▁at": 265,
      "▁merasa": 266,
      "aga": 267,
      "yak": 268,
      "▁w": 269,
      "angat*": 270,
      "▁Eliana,": 271,
      "alam": 272,
      "oba": 273,
      "ihat": 274,
      "▁sudah": 275,
      "▁bers": 276,
      "imana": 277,
      "▁nggak": 278,
      "elajar": 279,
      "▁a": 280,
      "alan": 281,
      "▁cer": 282,
      "▁bang": 283,
      "▁seper": 284,
      "▁jangan": 285,
      "an*": 286,
      "▁menc": 287,
      "▁*tersenyum*": 288,
      "▁ya": 289,
      "▁*ber": 290,
      "▁*menunjukkan": 291,
      "▁tent": 292,
      "▁ing": 293,
      "▁penuh": 294,
      "▁tentang": 295,
      "aja": 296,
      "▁harus": 297,
      "ep": 298,
      "▁O": 299,
      "ukan": 300,
      "da": 301,
      "olah": 302,
      "▁atau": 303,
      "▁J": 304,
      "▁sed": 305,
      "asih": 306,
      "uku": 307,
      "ro": 308,
      "yo": 309,
      "▁seperti": 310,
      "enangkan": 311,
      "▁baik": 312,
      "▁dari": 313,
      "ai": 314,
      "ul": 315,
      "wa": 316,
      "▁jadi": 317,
      "▁*meng": 318,
      "▁siap": 319,
      "ok": 320,
      "▁lu": 321,
      "enar": 322,
      "ikit": 323,
      "om": 324,
      "▁apa": 325,
      "ati": 326,
      "adang": 327,
      "▁ingin": 328,
      "ia": 329,
      "▁Kamu": 330,
      "pikir": 331,
      "▁tapi": 332,
      "emb": 333,
      "▁ini.": 334,
      "▁membuat": 335,
      "▁wak": 336,
      "▁makan": 337,
      "▁mungkin": 338,
      "unya": 339,
      "▁mel": 340,
      "asanya": 341,
      "bil": 342,
      "anyak": 343,
      "agi": 344,
      "▁seb": 345,
      "▁Kita": 346,
      "▁menyenangkan": 347,
      "asi": 348,
      "▁waktu": 349,
      "ob": 350,
      "end": 351,
      "▁semangat*": 352,
      "▁sedikit": 353,
      "▁D": 354,
      "▁banyak": 355,
      "arik": 356,
      "ca": 357,
      "ama": 358,
      "ahu": 359,
      "elah": 360,
      "entu": 361,
      "▁sin": 362,
      "▁saja": 363,
      "ulai": 364,
      "gus": 365,
      "▁beb": 366,
      "▁Ayo": 367,
      "▁membantu": 368,
      "elum": 369,
      "ju": 370,
      "▁mau": 371,
      "as*": 372,
      "▁*D": 373,
      "ilm": 374,
      "ph,": 375,
      "erapa": 376,
      "▁buat": 377,
      "▁buku": 378,
      "▁pas": 379,
      "▁kec": 380,
      "▁tempat": 381,
      "▁Hmph,": 382,
      "▁*Dengan": 383,
      "eg": 384,
      "ta": 385,
      "ua": 386,
      "▁bi": 387,
      "▁terlalu": 388,
      "▁beberapa": 389,
      "ma": 390,
      "iri": 391,
      "antusi": 392,
      "▁Itu": 393,
      "▁belajar": 394,
      "angg": 395,
      "atan": 396,
      "ide": 397,
      "▁banget": 398,
      "▁punya": 399,
      "▁tahu": 400,
      "ya,": 401,
      "ali": 402,
      "engar": 403,
      "and": 404,
      "▁kasih": 405,
      "▁hal": 406,
      "▁film": 407,
      "▁kecil": 408,
      "utu": 409,
      "epat": 410,
      "▁mulai": 411,
      "akukan": 412,
      "ip": 413,
      "jalan": 414,
      "enak": 415,
      "aman": 416,
      "ika": 417,
      "▁mencoba": 418,
      "cara": 419,
      "ol": 420,
      "▁Apa": 421,
      "▁Mungkin": 422,
      "▁Jangan": 423,
      "ed": 424,
      "har": 425,
      "enc": 426,
      "▁mend": 427,
      "ima": 428,
      "pai": 429,
      "-b": 430,
      "gu": 431,
      "▁L": 432,
      "▁ide": 433,
      "nya.": 434,
      "▁Ba": 435,
      "▁Baga": 436,
      "antai": 437,
      "▁sekolah": 438,
      "▁teman": 439,
      "▁Bagaimana": 440,
      "ata": 441,
      "▁menj": 442,
      "▁Tentu": 443,
      "▁bagus": 444,
      "▁seru": 445,
      "anti": 446,
      "▁sa": 447,
      "▁peng": 448,
      "▁set": 449,
      "etap": 450,
      "m,": 451,
      "ont": 452,
      "▁P": 453,
      "anj": 454,
      "▁ker": 455,
      "▁dalam": 456,
      "▁pro": 457,
      "ikin": 458,
      "▁Ada": 459,
      "ist": 460,
      "▁cara": 461,
      "▁Iya,": 462,
      "▁sambil": 463,
      "angguk": 464,
      "▁bikin": 465,
      "itas": 466,
      "▁selalu": 467,
      "aha": 468,
      "▁Hmm,": 469,
      "▁antusi": 470,
      "arang": 471,
      "▁menarik": 472,
      "tuju": 473,
      "▁lain": 474,
      "las": 475,
      "ah,": 476,
      "▁Ter": 477,
      "lub": 478,
      "▁ceria": 479,
      "▁setelah": 480,
      "▁tetap": 481,
      "▁berb": 482,
      "▁kelas": 483,
      "▁senang": 484,
      "▁sej": 485,
      "▁ses": 486,
      "▁kes": 487,
      "▁Se": 488,
      "e,": 489,
      "▁R": 490,
      "▁W": 491,
      "▁Y": 492,
      "▁kh": 493,
      "inya": 494,
      "amp": 495,
      "tiv": 496,
      "▁Kalau": 497,
      "▁lagi": 498,
      "▁Oh,": 499,
      "..": 500,
      "▁mas": 501,
      "▁ka": 502,
      "▁tu": 503,
      "und": 504,
      "gaimana": 505,
      "▁hanya": 506,
      "▁ini?": 507,
      "▁bagaimana": 508,
      "▁Sem": 509,
      "▁gam": 510,
      "onton": 511,
      "oga": 512,
      "raga": 513,
      "ting": 514,
      "u*": 515,
      "angk": 516,
      "at.": 517,
      "▁pem": 518,
      "ikm": 519,
      "▁nanti": 520,
      "▁pergi": 521,
      "uatu": 522,
      "orang": 523,
      "▁Dan": 524,
      "▁ceria*": 525,
      "▁benar": 526,
      "akah": 527,
      "ikap": 528,
      "is*": 529,
      "▁berpikir": 530,
      "▁memang": 531,
      "▁cepat": 532,
      "▁memba": 533,
      "▁tidur": 534,
      "▁Tapi,": 535,
      "mu.": 536,
      "▁pasti": 537,
      "tr": 538,
      "▁sana": 539,
      "▁sikap": 540,
      "▁bah": 541,
      "▁bes": 542,
      "▁beg": 543,
      "▁pikir": 544,
      "▁ya.": 545,
      "olahraga": 546,
      "▁*mengangguk": 547,
      "utuh": 548,
      "e*": 549,
      "▁min": 550,
      "aran": 551,
      "kus": 552,
      "▁coba": 553,
      "▁fo": 554,
      "▁luar": 555,
      "▁sebelum": 556,
      "▁game": 557,
      "-k": 558,
      "▁C": 559,
      "lah,": 560,
      "▁pelajar": 561,
      "▁begitu": 562,
      "aw": 563,
      "▁udah": 564,
      "akin": 565,
      "atih": 566,
      "▁jika": 567,
      "aling": 568,
      "▁lihat": 569,
      "▁member": 570,
      "▁rasa": 571,
      "▁renc": 572,
      "▁sama": 573,
      "▁Baik": 574,
      "ib": 575,
      "▁olahraga": 576,
      "▁sat": 577,
      "▁send": 578,
      "▁klub": 579,
      "eks": 580,
      "▁Ok": 581,
      "▁butuh": 582,
      "akal": 583,
      "asil": 584,
      "▁ny": 585,
      "ut*": 586,
      "ikmati": 587,
      "op": 588,
      "sund": 589,
      "▁diri": 590,
      "empat": 591,
      "▁pada": 592,
      "ukung": 593,
      "▁*ter": 594,
      "▁semua": 595,
      "baik": 596,
      "▁itu.": 597,
      "▁sering": 598,
      "▁baik.": 599,
      "▁menyenangkan.": 600,
      "▁Lagi": 601,
      "▁sesuatu": 602,
      "▁satu": 603,
      "sunder": 604,
      "-h": 605,
      "ter": 606,
      "▁tsunder": 607,
      "alas": 608,
      "iri.": 609,
      "ilang": 610,
      "▁Kadang": 611,
      "▁semangat": 612,
      "▁penting": 613,
      "▁sampai": 614,
      "ula,": 615,
      "▁menjadi": 616,
      "▁Rasanya": 617,
      "hir": 618,
      "uas": 619,
      "▁ad": 620,
      "▁penas": 621,
      "aja.": 622,
      "▁bersama": 623,
      "▁makanan": 624,
      "▁Semoga": 625,
      "▁pelajaran": 626,
      "▁Oke,": 627,
      "pula,": 628,
      "tikan": 629,
      "▁orang": 630,
      "▁bakal": 631,
      "▁mat": 632,
      "▁mal": 633,
      "▁tek": 634,
      "aham": 635,
      "▁kita.": 636,
      "▁berba": 637,
      "gai": 638,
      "▁melihat": 639,
      "-benar": 640,
      "▁Terima": 641,
      "▁benar-benar": 642,
      "▁Lagipula,": 643,
      "bis": 644,
      "eh": 645,
      "yek": 646,
      "▁dep": 647,
      "▁Ap": 648,
      "▁Sela": 649,
      "▁sekarang": 650,
      "▁antusias*": 651,
      "▁Baiklah,": 652,
      "an,": 653,
      "an?": 654,
      "▁sen": 655,
      "▁bantu": 656,
      "emangat*": 657,
      "▁yakin": 658,
      "uma": 659,
      "▁sekali": 660,
      "▁*berpikir": 661,
      "▁lupa": 662,
      "omp": 663,
      "main": 664,
      "▁sejenak": 665,
      "▁fokus": 666,
      "awat": 667,
      "a,": 668,
      "af": 669,
      "dah": 670,
      "nah": 671,
      "tanya": 672,
      "▁senyum": 673,
      "ar*": 674,
      "atkan": 675,
      "▁pagi": 676,
      "amb": 677,
      "▁jalan": 678,
      "▁berhar": 679,
      "▁kegi": 680,
      "irah": 681,
      "▁terus": 682,
      "▁rum": 683,
      "esa": 684,
      "▁pernah": 685,
      "▁harap": 686,
      "tawa": 687,
      "▁Wah,": 688,
      "awatir": 689,
      "▁enak": 690,
      "▁bilang": 691,
      "▁*s": 692,
      "▁lemb": 693,
      "▁cuma": 694,
      "gian": 695,
      "elas": 696,
      "▁melakukan": 697,
      "▁proyek": 698,
      "istirah": 699,
      "▁Setuju": 700,
      "▁khawatir": 701,
      "▁adalah": 702,
      "▁tekn": 703,
      "▁Apakah": 704,
      "-s": 705,
      "ius": 706,
      "icara": 707,
      "uang": 708,
      "ulu": 709,
      "uanya": 710,
      "▁belum": 711,
      "arkan": 712,
      "ambil": 713,
      "▁*M": 714,
      "▁seg": 715,
      "ah*": 716,
      "▁lama": 717,
      "▁In": 718,
      "▁agak": 719,
      "▁sini.": 720,
      "▁tsundere*": 721,
      "▁rumah": 722,
      "bers": 723,
      "gas": 724,
      "iap": 725,
      "ja": 726,
      "▁aja": 727,
      "▁istirah": 728,
      "▁masih": 729,
      "▁kar": 730,
      "ar.": 731,
      "▁dukung": 732,
      "▁dulu": 733,
      "▁pantai": 734,
      "▁menang": 735,
      "▁menem": 736,
      "▁memas": 737,
      "esep": 738,
      "▁baru.": 739,
      "▁biasa": 740,
      "anjang": 741,
      "▁besok": 742,
      "-kadang": 743,
      "ibur": 744,
      "bung": 745,
      "▁N": 746,
      "▁i": 747,
      "ama.": 748,
      "▁*bers": 749,
      "iku": 750,
      "▁nonton": 751,
      "ilih": 752,
      "tiap": 753,
      "▁juga.": 754,
      "▁cerita": 755,
      "▁ya?": 756,
      "rol": 757,
      "▁Ayo,": 758,
      "▁saat": 759,
      "▁tugas": 760,
      "▁sana.": 761,
      "▁rencana": 762,
      "▁*tertawa": 763,
      "▁malu*": 764,
      "os": 765,
      "ener": 766,
      "▁saja.": 767,
      "▁kem": 768,
      "▁ters": 769,
      "▁taman": 770,
      "ikut": 771,
      "▁sel": 772,
      "▁dia": 773,
      "eka": 774,
      "▁semuanya": 775,
      "▁perlu": 776,
      "orit": 777,
      "▁serius": 778,
      "▁bangun": 779,
      "obalah": 780,
      "obrol": 781,
      "▁mendengar": 782,
      "-hal": 783,
      "▁berbagi": 784,
      "▁sejenak*": 785,
      "▁berharap": 786,
      "▁kegiatan": 787,
      "▁Ini": 788,
      "▁dukungan*": 789,
      "-t": 790,
      "av": 791,
      "hati": 792,
      "i*": 793,
      "ogi": 794,
      "▁saling": 795,
      "▁dat": 796,
      "▁tak": 797,
      "▁menant": 798,
      "▁hasil": 799,
      "▁kel": 800,
      "▁resep": 801,
      "▁bagian": 802,
      "ong": 803,
      "▁ngobrol": 804,
      "▁mengh": 805,
      "▁fav": 806,
      "ulang": 807,
      "▁sinis*": 808,
      "▁hal-hal": 809,
      "ologi": 810,
      "▁sekolah.": 811,
      "▁pengen": 812,
      "▁berbicara": 813,
      "▁Ya,": 814,
      "▁membaca": 815,
      "▁*bersemangat*": 816,
      "▁favorit": 817,
      "ian": 818,
      "u.": 819,
      "▁ap": 820,
      "ena": 821,
      "▁masa": 822,
      "▁malam": 823,
      "atap": 824,
      "ampai": 825,
      "▁berjalan": 826,
      "▁lakukan": 827,
      "kan.": 828,
      "▁rasanya": 829,
      "ekat": 830,
      "▁Sampai": 831,
      "esk": 832,
      "urut": 833,
      "uduk": 834,
      "antin": 835,
      "tivitas": 836,
      "▁depan": 837,
      "▁teknologi": 838,
      "▁istirahat": 839,
      "mb": 840,
      "tinya": 841,
      "▁eks": 842,
      "anas": 843,
      "anakan": 844,
      "▁sih": 845,
      "▁mudah": 846,
      "▁malas": 847,
      "▁kalah": 848,
      "▁kantin": 849,
      "▁tenang": 850,
      "▁menikmati": 851,
      "al.": 852,
      "▁latih": 853,
      "▁kamu.": 854,
      "usik": 855,
      "▁terbaik": 856,
      "▁ruang": 857,
      "▁perhati": 858,
      "▁bareng": 859,
      "▁bersama.": 860,
      "▁ac": 861,
      "ulis": 862,
      "▁sini": 863,
      "▁saja!": 864,
      "andangan": 865,
      "▁kecil*": 866,
      "...": 867,
      "▁memberikan": 868,
      "▁sendiri": 869,
      "kata": 870,
      "ot": 871,
      "up": 872,
      "▁str": 873,
      "▁duduk": 874,
      "▁tip": 875,
      "▁*S": 876,
      "▁setuju": 877,
      "▁berl": 878,
      "▁bermain": 879,
      "usaha": 880,
      "▁terl": 881,
      "▁tert": 882,
      "▁Hari": 883,
      "antangan": 884,
      "▁Eliana.": 885,
      "▁*bertanya": 886,
      "▁*berkata": 887,
      "ukup": 888,
      "ulit": 889,
      "ipun": 890,
      "ampir": 891,
      "▁kayak": 892,
      "▁Cobalah": 893,
      "▁Kadang-kadang": 894,
      "▁seni": 895,
      "▁*senyum": 896,
      "▁lembut*": 897,
      "▁datang": 898,
      "eskipun": 899,
      "▁acuh": 900,
      "ai.": 901,
      "od": 902,
      "annya": 903,
      "▁salah": 904,
      "▁mata": 905,
      "▁kali": 906,
      "▁tantangan": 907,
      "▁pulang": 908,
      "▁akhir": 909,
      "▁setiap": 910,
      "▁berk": 911,
      "▁memaham": 912,
      "▁cukup": 913,
      "elesa": 914,
      "▁perca": 915,
      "▁Men": 916,
      "▁ayo": 917,
      "▁mencari": 918,
      "▁Jadi": 919,
      "▁membantu.": 920,
      "▁banget.": 921,
      "▁penasaran": 922,
      "iapkan": 923,
      "▁latihan": 924,
      "▁percaya": 925,
      "eda": 926,
      "fa": 927,
      "mat": 928,
      "otiv": 929,
      "sung": 930,
      "▁ikut": 931,
      "eri": 932,
      "erja": 933,
      "▁bek": 934,
      "▁ma": 935,
      "angsung": 936,
      "arah": 937,
      "▁pe": 938,
      "▁*T": 939,
      "apat": 940,
      "ahan": 941,
      "ku.": 942,
      "▁menunjukkan": 943,
      "▁cem": 944,
      "esi": 945,
      "▁itu,": 946,
      "antai.": 947,
      "▁ya!": 948,
      "▁*berbis": 949,
      "▁keren": 950,
      "▁antusias": 951,
      "▁masuk": 952,
      "▁pemandangan": 953,
      "▁minat": 954,
      "▁khawatir,": 955,
      "▁karena": 956,
      "ikuti": 957,
      "elesaikan": 958,
      "▁*berbisik": 959,
      "bar": 960,
      "buh": 961,
      "gun": 962,
      "yang": 963,
      "anfa": 964,
      "enangan": 965,
      "erti": 966,
      "▁mikir": 967,
      "▁kan?": 968,
      "▁*antusi": 969,
      "▁aktivitas": 970,
      "ya.": 971,
      "▁seh": 972,
      "adapi": 973,
      "isku": 974,
      "▁berusaha": 975,
      "▁langsung": 976,
      "▁kep": 977,
      "usus": 978,
      "ekom": 979,
      "uru": 980,
      "▁Mari": 981,
      "▁menyelesaikan": 982,
      "▁siap.": 983,
      "▁biasanya": 984,
      "▁bagus!": 985,
      "▁keras": 986,
      "▁kelas.": 987,
      "▁khusus": 988,
      "▁nanti.": 989,
      "▁*mengangguk*": 990,
      "uasana": 991,
      "▁menemukan": 992,
      "▁*antusias*": 993,
      "iskusi": 994,
      "ekomend": 995,
      "agu": 996,
      "na": 997,
      "▁suasana": 998,
      "▁kadang": 999,
      "lamb": 1000,
      "▁tel": 1001,
      "▁pr": 1002,
      "▁panjang": 1003,
      "▁sep": 1004,
      "▁jum": 1005,
      "▁nap": 1006,
      "umu": 1007,
      "ga*": 1008,
      "▁libur": 1009,
      "▁memp": 1010,
      "▁indah": 1011,
      "tif": 1012,
      "▁terlamb": 1013,
      "▁*mem": 1014,
      "▁*mel": 1015,
      "▁bawa": 1016,
      "imu": 1017,
      "▁Haha": 1018,
      "▁sebent": 1019,
      "uaca": 1020,
      "jalanan": 1021,
      "anjut": 1022,
      "▁sendiri.": 1023,
      "▁nyaman": 1024,
      "▁Selamat": 1025,
      "▁Setuju!": 1026,
      "▁menantang": 1027,
      "▁perhatian*": 1028,
      "▁tips": 1029,
      "▁*senyum*": 1030,
      "▁Jadi,": 1031,
      "otivasi": 1032,
      "▁jumpa": 1033,
      "▁Haha,": 1034,
      "-jalan": 1035,
      "ef": 1036,
      "gr": 1037,
      "ses": 1038,
      "anc": 1039,
      "▁sp": 1040,
      "▁mari": 1041,
      "▁musik": 1042,
      "akt": 1043,
      "aku": 1044,
      "emangat": 1045,
      "apan": 1046,
      "▁menu": 1047,
      "▁jau": 1048,
      "▁berga": 1049,
      "▁terd": 1050,
      "▁ini,": 1051,
      "▁rut": 1052,
      "imp": 1053,
      "nya,": 1054,
      "▁perjalanan": 1055,
      "▁Eliana?": 1056,
      "▁mengikuti": 1057,
      "siap": 1058,
      "berut*": 1059,
      "▁siapa": 1060,
      "▁acara": 1061,
      "obi": 1062,
      "▁Bagus": 1063,
      "▁Pas": 1064,
      "▁menarik.": 1065,
      "▁begitu.": 1066,
      "▁penting.": 1067,
      "▁sekarang.": 1068,
      "▁*Meng": 1069,
      "urutmu": 1070,
      "▁cemberut*": 1071,
      "▁antusiasm": 1072,
      "-c": 1073,
      "egi": 1074,
      "hela": 1075,
      "ota": 1076,
      "▁v": 1077,
      "enapa": 1078,
      "▁man": 1079,
      "▁mur": 1080,
      "▁meskipun": 1081,
      "▁diri.": 1082,
      "in.": 1083,
      "▁tur": 1084,
      "▁le": 1085,
      "▁denganmu": 1086,
      "idup": 1087,
      "esai": 1088,
      "▁pert": 1089,
      "▁juga,": 1090,
      "▁menghar": 1091,
      "▁*menatap": 1092,
      "▁atas": 1093,
      "▁cerah*": 1094,
      "omen": 1095,
      "▁menyenangkan!": 1096,
      "▁kesempat": 1097,
      "▁kaf": 1098,
      "▁berpikir*": 1099,
      "▁penasar": 1100,
      "▁sekali!": 1101,
      "▁besok.": 1102,
      "▁selesai": 1103,
      "▁berlatih": 1104,
      "▁tertarik": 1105,
      "▁bergabung": 1106,
      "ay": 1107,
      "ic": 1108,
      "ny": 1109,
      "oh": 1110,
      "ov": 1111,
      "uj": 1112,
      "uli": 1113,
      "wal": 1114,
      "▁ok": 1115,
      "▁su": 1116,
      "▁bel": 1117,
      "▁kr": 1118,
      "at!": 1119,
      "ategi": 1120,
      "▁dun": 1121,
      "ins": 1122,
      "▁tersenyum": 1123,
      "▁pers": 1124,
      "▁paling": 1125,
      "▁pilih": 1126,
      "asi.": 1127,
      "isi": 1128,
      "▁lanjut": 1129,
      "▁hobi": 1130,
      "▁keh": 1131,
      "irik": 1132,
      "▁Tadi": 1133,
      "▁Ked": 1134,
      "▁terk": 1135,
      "▁*meny": 1136,
      "unggu": 1137,
      "ing.": 1138,
      "asaan": 1139,
      "▁pend": 1140,
      "utama": 1141,
      "▁lebar*": 1142,
      "▁meraj": 1143,
      "▁merenc": 1144,
      "ikirkan": 1145,
      "▁gitu": 1146,
      "▁sepertinya": 1147,
      "andang": 1148,
      "eduli": 1149,
      "▁sabar": 1150,
      "ahab": 1151,
      "▁tuju": 1152,
      "▁materi": 1153,
      "ompok": 1154,
      "▁memasak": 1155,
      "▁kelompok": 1156,
      "▁strategi": 1157,
      "▁memahami": 1158,
      "▁antusiasme*": 1159,
      "▁dunia": 1160,
      "▁merencanakan": 1161,
      "a*": 1162,
      "abis": 1163,
      "ec": 1164,
      "kep": 1165,
      "tar": 1166,
      "tis*": 1167,
      "uan": 1168,
      "w,": 1169,
      "▁so": 1170,
      "▁santai": 1171,
      "▁sulit": 1172,
      "▁skep": 1173,
      "▁bukan": 1174,
      "angun": 1175,
      "▁komp": 1176,
      "at,": 1177,
      "▁dengar": 1178,
      "indah": 1179,
      "▁panas": 1180,
      "uk*": 1181,
      "▁AI": 1182,
      "▁menenangkan": 1183,
      "ali.": 1184,
      "alan.": 1185,
      "▁berm": 1186,
      "▁memikirkan": 1187,
      "▁ket": 1188,
      "▁cuaca": 1189,
      "ilik": 1190,
      "▁terb": 1191,
      "▁rekomend": 1192,
      "▁ragu": 1193,
      "▁baca": 1194,
      "imb": 1195,
      "▁Set": 1196,
      "▁sempat": 1197,
      "▁mereka": 1198,
      "▁Bi": 1199,
      "▁itu?": 1200,
      "▁mengg": 1201,
      "lah.": 1202,
      "▁siang": 1203,
      "▁guru": 1204,
      "▁sedang": 1205,
      "▁teman-t": 1206,
      "▁proses": 1207,
      "▁lain.": 1208,
      "▁memberi": 1209,
      "▁bantuan": 1210,
      "▁jalan-jalan": 1211,
      "▁aja,": 1212,
      "▁memastikan": 1213,
      "▁iya.": 1214,
      "▁takut": 1215,
      "▁menghadapi": 1216,
      "▁apakah": 1217,
      "▁*berbisik*": 1218,
      "▁sebentar": 1219,
      "▁jauh": 1220,
      "▁murid": 1221,
      "▁kafe": 1222,
      "▁oke": 1223,
      "▁merajuk*": 1224,
      "▁tujuan": 1225,
      "▁skeptis*": 1226,
      "▁Setelah": 1227,
      "▁teman-tem": 1228,
      "-m": 1229,
      "ma.": 1230,
      "pr": 1231,
      "to": 1232,
      "ub": 1233,
      "▁alam": 1234,
      "▁sar": 1235,
      "▁mana": 1236,
      "▁kur": 1237,
      "▁kok": 1238,
      "▁dir": 1239,
      "▁dekat": 1240,
      "inar*": 1241,
      "▁tr": 1242,
      "▁ting": 1243,
      "▁tadi": 1244,
      "▁peduli": 1245,
      "aman.": 1246,
      "▁menonton": 1247,
      "▁menulis": 1248,
      "▁jelas": 1249,
      "▁nikmati": 1250,
      "▁berd": 1251,
      "▁memulai": 1252,
      "▁memilih": 1253,
      "ira": 1254,
      "▁cat": 1255,
      "▁cemb": 1256,
      "▁terima": 1257,
      "ingin": 1258,
      "▁juga!": 1259,
      "▁Mem": 1260,
      "elajari": 1261,
      "▁bersantai": 1262,
      "▁nggak?": 1263,
      "▁cerit": 1264,
      "▁bangga*": 1265,
      "▁*mengg": 1266,
      "▁membuatku": 1267,
      "▁waktu.": 1268,
      "▁pastikan": 1269,
      "▁kasih.": 1270,
      "utus": 1271,
      "oleh": 1272,
      "▁seru.": 1273,
      "▁berbinar*": 1274,
      "▁lagi.": 1275,
      "▁masalah": 1276,
      "angkat": 1277,
      "▁tidur.": 1278,
      "▁bahwa": 1279,
      "▁begitu,": 1280,
      "▁Setuju.": 1281,
      "▁Ng": 1282,
      "▁iya,": 1283,
      "▁mendengarkan": 1284,
      "▁bekerja": 1285,
      "gunakan": 1286,
      "▁spesi": 1287,
      "▁terdengar": 1288,
      "▁rutin": 1289,
      "▁manus": 1290,
      "▁menghargai": 1291,
      "▁kesempatan": 1292,
      "iliki": 1293,
      "▁rekomendasi": 1294,
      "gar": 1295,
      "ow,": 1296,
      "ubung": 1297,
      "▁G": 1298,
      "▁em": 1299,
      "▁al": 1300,
      "▁empat": 1301,
      "anda": 1302,
      "era": 1303,
      "▁suk": 1304,
      "▁saran": 1305,
      "▁mar": 1306,
      "▁mampir": 1307,
      "▁momen": 1308,
      "▁kak": 1309,
      "▁kota": 1310,
      "aks": 1311,
      "arna": 1312,
      "▁tan": 1313,
      "▁tim": 1314,
      "▁top": 1315,
      "emat": 1316,
      "ungi": 1317,
      "ukan.": 1318,
      "▁sela": 1319,
      "is.": 1320,
      "▁menurutmu": 1321,
      "▁ja": 1322,
      "▁na": 1323,
      "alangan": 1324,
      "tualangan": 1325,
      "▁hidup": 1326,
      "▁memiliki": 1327,
      "▁keb": 1328,
      "▁keindah": 1329,
      "▁cari": 1330,
      "▁terj": 1331,
      "▁baw": 1332,
      "ekarang": 1333,
      "ingan": 1334,
      "nya!": 1335,
      "▁Sekarang": 1336,
      "▁permain": 1337,
      "▁perasaan": 1338,
      "▁Mer": 1339,
      "▁lama.": 1340,
      "▁sekit": 1341,
      "▁*mend": 1342,
      "orm": 1343,
      "▁bersemangat": 1344,
      "▁Oh": 1345,
      "▁*menghela": 1346,
      "▁membuatmu": 1347,
      "olus": 1348,
      "edikit": 1349,
      "▁seru!": 1350,
      "▁pengalam": 1351,
      "▁Wow,": 1352,
      "angkah": 1353,
      "▁foto": 1354,
      "▁Selain": 1355,
      "▁segar": 1356,
      "▁biasa!": 1357,
      "▁biasa.": 1358,
      "▁terlihat": 1359,
      "▁Kadang-kadang,": 1360,
      "▁acuh*": 1361,
      "▁main": 1362,
      "▁petualangan": 1363,
      "▁sepanjang": 1364,
      "▁penasaran*": 1365,
      "nyata": 1366,
      "ahabatan": 1367,
      "▁rutinitas": 1368,
      "-p": 1369,
      "galan": 1370,
      "i,": 1371,
      "mana": 1372,
      "uah": 1373,
      "▁F": 1374,
      "▁ar": 1375,
      "▁gi": 1376,
      "▁aja.": 1377,
      "▁ener": 1378,
      "▁ef": 1379,
      "ani": 1380,
      "erin": 1381,
      "▁sad": 1382,
      "▁solus": 1383,
      "▁mula": 1384,
      "▁dapat": 1385,
      "▁tentu": 1386,
      "▁pel": 1387,
      "▁pes": 1388,
      "apatkan": 1389,
      "▁secara": 1390,
      "ku,": 1391,
      "▁aku,": 1392,
      "▁jad": 1393,
      "▁nov": 1394,
      "▁berh": 1395,
      "▁berp": 1396,
      "▁bert": 1397,
      "▁heb": 1398,
      "▁hampir": 1399,
      "▁memper": 1400,
      "▁diper": 1401,
      "ersiapkan": 1402,
      "▁membangun": 1403,
      "ektif": 1404,
      "anya.": 1405,
      "▁penda": 1406,
      "▁barang": 1407,
      "▁Hai": 1408,
      "▁Ber": 1409,
      "▁lagu": 1410,
      "▁mengerti": 1411,
      "unjungi": 1412,
      "▁ya,": 1413,
      "embang": 1414,
      "▁banyak.": 1415,
      "▁banget,": 1416,
      "engarannya": 1417,
      "▁mendapatkan": 1418,
      "▁menjaga": 1419,
      "▁Tentu,": 1420,
      "▁sejarah": 1421,
      "inya.": 1422,
      "angka": 1423,
      "▁bahkan": 1424,
      "▁bahagi": 1425,
      "▁besar": 1426,
      "▁minum": 1427,
      "▁bersama,": 1428,
      "ambah": 1429,
      "▁enak.": 1430,
      "▁serius*": 1431,
      "▁mudah.": 1432,
      "▁setuju*": 1433,
      "▁*Tersenyum": 1434,
      "▁minat*": 1435,
      "▁napas*": 1436,
      "▁terlambat.": 1437,
      "▁bermanfa": 1438,
      "▁oke?": 1439,
      "▁teman-teman": 1440,
      "▁Nggak": 1441,
      "▁manusia": 1442,
      "▁empati*": 1443,
      "▁suka.": 1444,
      "▁topik": 1445,
      "▁naik": 1446,
      "▁keindahan": 1447,
      "▁bawah": 1448,
      "▁Mereka": 1449,
      "▁pengalaman": 1450,
      "▁gimana": 1451,
      "▁mulai.": 1452,
      "▁novel": 1453,
      "▁pendaf": 1454,
      "-siap": 1455,
      "beda": 1456,
      "canda": 1457,
      "ej": 1458,
      "gal": 1459,
      "lihat": 1460,
      "oda": 1461,
      "tal": 1462,
      "uek": 1463,
      "▁as": 1464,
      "▁bus": 1465,
      "▁bur": 1466,
      "▁bet": 1467,
      "▁bener": 1468,
      "▁mist": 1469,
      "▁ku": 1470,
      "▁kemb": 1471,
      "▁dap": 1472,
      "▁dis": 1473,
      "▁dil": 1474,
      "▁deh": 1475,
      "▁tonton": 1476,
      "emu": 1477,
      "▁pu": 1478,
      "asakan": 1479,
      "asikan": 1480,
      "▁seba": 1481,
      "ahas": 1482,
      "▁berlalu": 1483,
      "tul": 1484,
      "▁lanc": 1485,
      "▁hati": 1486,
      "▁memer": 1487,
      "▁ked": 1488,
      "▁kamu,": 1489,
      "▁ins": 1490,
      "▁cuek": 1491,
      "ilan": 1492,
      "▁untukmu.": 1493,
      "ebih": 1494,
      "ebut": 1495,
      "▁Kenapa": 1496,
      "ungan": 1497,
      "ing,": 1498,
      "ingk": 1499,
      "nya?": 1500,
      "uru*": 1501,
      "▁semes": 1502,
      "▁sembuh": 1503,
      "ons": 1504,
      "▁lalu": 1505,
      "▁mengeks": 1506,
      "entara": 1507,
      "ore": 1508,
      "▁bersantai.": 1509,
      "▁agar": 1510,
      "▁mencob": 1511,
      "▁ingat": 1512,
      "▁Jika": 1513,
      "▁saja,": 1514,
      "▁banget!": 1515,
      "▁tahu,": 1516,
      "▁mendukung": 1517,
      "▁sekolah?": 1518,
      "▁bagus.": 1519,
      "▁kesulit": 1520,
      "▁Seper": 1521,
      "ampuan": 1522,
      "▁lagi,": 1523,
      "▁kag": 1524,
      "▁membawa": 1525,
      "▁diri*": 1526,
      "▁berbagai": 1527,
      "▁*berpikir*": 1528,
      "▁lupa,": 1529,
      "▁lembut": 1530,
      "-senang": 1531,
      "▁segera": 1532,
      "▁dulu.": 1533,
      "▁Nanti": 1534,
      "▁kemampuan": 1535,
      "▁semuanya.": 1536,
      "▁ekstr": 1537,
      "▁terbaik.": 1538,
      "▁keren!": 1539,
      "▁sehat": 1540,
      "▁liburan": 1541,
      "▁*memandang": 1542,
      "▁*melirik": 1543,
      "aktir": 1544,
      "▁*Mengangguk": 1545,
      "ayakan": 1546,
      "▁pendapat": 1547,
      "▁soal": 1548,
      "▁AI,": 1549,
      "▁sarapan": 1550,
      "▁traktir": 1551,
      "▁catatan": 1552,
      "▁cemburu*": 1553,
      "▁Gimana": 1554,
      "▁kaki": 1555,
      "▁tanpa": 1556,
      "▁permainan": 1557,
      "▁*mendekat": 1558,
      "▁membangunkan": 1559,
      "▁betapa": 1560,
      "▁kembali": 1561,
      "▁dapur": 1562,
      "▁cuek*": 1563,
      "-d": 1564,
      "-apa": 1565,
      "ayak": 1566,
      "buk": 1567,
      "cu": 1568,
      "capa": 1569,
      "ew": 1570,
      "eati": 1571,
      "etul": 1572,
      "form": 1573,
      "iapa": 1574,
      "jelas": 1575,
      "ket": 1576,
      "oin": 1577,
      "osi": 1578,
      "pir": 1579,
      "tau": 1580,
      "taran": 1581,
      "▁U": 1582,
      "▁ant": 1583,
      "▁ambil": 1584,
      "an!": 1585,
      "erit": 1586,
      "▁situ": 1587,
      "▁suatu": 1588,
      "▁bas": 1589,
      "▁buk": 1590,
      "▁motivasi": 1591,
      "▁kam": 1592,
      "▁kenangan": 1593,
      "▁kons": 1594,
      "ak.": 1595,
      "akhir": 1596,
      "arin": 1597,
      "ati.": 1598,
      "▁dit": 1599,
      "▁det": 1600,
      "▁daf": 1601,
      "▁diskusi": 1602,
      "ind": 1603,
      "▁tok": 1604,
      "▁pl": 1605,
      "▁pad": 1606,
      "▁peg": 1607,
      "▁paham": 1608,
      "▁pos": 1609,
      "engk": 1610,
      "unc": 1611,
      "uk,": 1612,
      "iks": 1613,
      "ikan.": 1614,
      "apun": 1615,
      "▁Ah,": 1616,
      "▁Atau": 1617,
      "adap": 1618,
      "is,": 1619,
      "▁aku.": 1620,
      "▁jalan.": 1621,
      "amu.": 1622,
      "▁berter": 1623,
      "▁langkah": 1624,
      "▁kelu": 1625,
      "▁inform": 1626,
      "▁co": 1627,
      "usah": 1628,
      "▁dip": 1629,
      "▁Taman": 1630,
      "▁Kayak": 1631,
      "▁terasa": 1632,
      "▁terutama": 1633,
      "▁*memb": 1634,
      "ingat": 1635,
      "ingung": 1636,
      "▁Siapa": 1637,
      "apai": 1638,
      "▁perbeda": 1639,
      "▁pencapa": 1640,
      "etisi": 1641,
      "▁Hah,": 1642,
      "enang-senang": 1643,
      "paya": 1644,
      "ajah": 1645,
      "▁lap": 1646,
      "▁mengat": 1647,
      "▁menyiapkan": 1648,
      "▁sama.": 1649,
      "▁hari.": 1650,
      "▁sibuk": 1651,
      "yakin": 1652,
      "▁warna": 1653,
      "▁bersenang-senang": 1654,
      "wab": 1655,
      "▁siap-siap": 1656,
      "omong": 1657,
      "▁apa?": 1658,
      "▁apa-apa": 1659,
      "▁membuatnya": 1660,
      "unya.": 1661,
      "▁sebuah": 1662,
      "▁biar": 1663,
      "▁belajar.": 1664,
      "utup": 1665,
      "gup": 1666,
      "▁Ternyata": 1667,
      "▁masakan": 1668,
      "▁benar.": 1669,
      "▁tidur,": 1670,
      "▁minta": 1671,
      "▁rencanakan": 1672,
      "asilitas": 1673,
      "▁nyaman.": 1674,
      "▁matemat": 1675,
      "▁rumah.": 1676,
      "▁tersend": 1677,
      "▁tersebut": 1678,
      "▁menantikan": 1679,
      "▁tenang.": 1680,
      "▁stres": 1681,
      "▁*Sambil": 1682,
      "▁*Sedikit": 1683,
      "▁setuju.": 1684,
      "▁maaf": 1685,
      "anfaatkan": 1686,
      "▁napas": 1687,
      "▁mempersiapkan": 1688,
      "▁*melihat": 1689,
      "▁Pasti": 1690,
      "▁*menatapmu": 1691,
      "▁supaya": 1692,
      "▁beli": 1693,
      "▁kreati": 1694,
      "▁tersenyum*": 1695,
      "▁persahabatan": 1696,
      "▁Kedengarannya": 1697,
      "abiskan": 1698,
      "▁dirimu": 1699,
      "▁berdiskusi": 1700,
      "▁emosi": 1701,
      "▁marah*": 1702,
      "▁terjadi": 1703,
      "▁sekitar": 1704,
      "▁pesan": 1705,
      "▁jadwal": 1706,
      "▁diperl": 1707,
      "▁pendaftaran": 1708,
      "▁buruk": 1709,
      "▁puas*": 1710,
      "▁sebagai": 1711,
      "▁berlalu.": 1712,
      "▁Sepertinya": 1713,
      "▁antara": 1714,
      "▁basket": 1715,
      "▁berterima": 1716,
      "▁pencapaian": 1717,
      "aya": 1718,
      "aaf": 1719,
      "e.": 1720,
      "eh,": 1721,
      "ewa": 1722,
      "gant": 1723,
      "hana": 1724,
      "kop": 1725,
      "khir": 1726,
      "lor": 1727,
      "ola": 1728,
      "pek": 1729,
      "plor": 1730,
      "tasi": 1731,
      "ual": 1732,
      "uangan": 1733,
      "ugup": 1734,
      "▁'": 1735,
      "▁ud": 1736,
      "▁on": 1737,
      "▁angg": 1738,
      "▁angk": 1739,
      "▁uj": 1740,
      "▁utama": 1741,
      "enung": 1742,
      "eren": 1743,
      "erasa": 1744,
      "erhana": 1745,
      "▁sore": 1746,
      "▁bingung": 1747,
      "▁mengan": 1748,
      "ang.": 1749,
      "▁kul": 1750,
      "▁kenapa": 1751,
      "▁kunjungi": 1752,
      "aku.": 1753,
      "ar,": 1754,
      "arti": 1755,
      "atanya": 1756,
      "atan.": 1757,
      "▁dah": 1758,
      "inta": 1759,
      "▁tangan": 1760,
      "▁tunjukkan": 1761,
      "▁tamp": 1762,
      "▁puas": 1763,
      "▁pelajari": 1764,
      "▁Akhir": 1765,
      "▁sega": 1766,
      "▁sebaik": 1767,
      "ahari": 1768,
      "▁menit": 1769,
      "▁menunggu": 1770,
      "▁menambah": 1771,
      "▁berikut": 1772,
      "▁bergun": 1773,
      "▁beradap": 1774,
      "▁berarti": 1775,
      "▁lari": 1776,
      "▁hangat*": 1777,
      "▁memuas": 1778,
      "▁memanfaatkan": 1779,
      "▁kek": 1780,
      "▁keting": 1781,
      "▁kesiap": 1782,
      "▁keyakin": 1783,
      "▁car": 1784,
      "usnya": 1785,
      "ustr": 1786,
      "▁Klub": 1787,
      "▁terh": 1788,
      "▁ini!": 1789,
      "▁membant": 1790,
      "▁ref": 1791,
      "▁ruangan": 1792,
      "ekerja": 1793,
      "▁Sen": 1794,
      "▁Seb": 1795,
      "▁Sama": 1796,
      "▁semoga": 1797,
      "▁penulis": 1798,
      "▁merasakan": 1799,
      "▁merayakan": 1800,
      "akan.": 1801,
      "ajak": 1802,
      "▁Musik": 1803,
      "▁Meskipun": 1804,
      "▁baru,": 1805,
      "▁Tapi...": 1806,
      "mu!": 1807,
      "▁ngerasa": 1808,
      "▁Eliana!": 1809,
      "▁mengaku": 1810,
      "▁fasilitas": 1811,
      "▁sekali.": 1812,
      "▁menyes": 1813,
      "▁hari-h": 1814,
      "▁gr": 1815,
      "▁gugup": 1816,
      "▁air": 1817,
      "▁cerah": 1818,
      "▁sederhana": 1819,
      "rogr": 1820,
      "▁baik,": 1821,
      "▁siap!": 1822,
      "▁siapin": 1823,
      "embangan": 1824,
      "▁mungkin.": 1825,
      "▁Di": 1826,
      "▁Dia": 1827,
      "▁kecewa": 1828,
      "▁tempat-t": 1829,
      "egarkan": 1830,
      "▁Tentu!": 1831,
      "▁seru,": 1832,
      "▁pengerti": 1833,
      "etapkan": 1834,
      "▁kerja": 1835,
      "▁berbeda": 1836,
      "▁senang*": 1837,
      "▁kesep": 1838,
      "▁Setiap": 1839,
      "▁Yuk,": 1840,
      "▁pemanas": 1841,
      "▁pemrogr": 1842,
      "▁nanti?": 1843,
      "truk": 1844,
      "▁besar.": 1845,
      "kusikan": 1846,
      "▁Cerit": 1847,
      "▁rencan": 1848,
      "▁malu": 1849,
      "gai*": 1850,
      "ehatan": 1851,
      "▁senyum*": 1852,
      "ambut": 1853,
      "▁karya": 1854,
      "▁dulu,": 1855,
      "▁meneman": 1856,
      "▁*tertawa*": 1857,
      "oskop": 1858,
      "▁serius,": 1859,
      "▁hasilnya": 1860,
      "urutku,": 1861,
      "▁ekspr": 1862,
      "▁sih.": 1863,
      "▁sini,": 1864,
      "▁*Senyum": 1865,
      "ode": 1866,
      "▁tantangan.": 1867,
      "▁berkembang": 1868,
      "▁Menurutku,": 1869,
      "▁bekal": 1870,
      "▁pekan": 1871,
      "▁sehari": 1872,
      "▁kadang-kadang": 1873,
      "▁prakt": 1874,
      "▁menantang,": 1875,
      "impi": 1876,
      "▁Pastikan": 1877,
      "▁pertama": 1878,
      "ohon": 1879,
      "▁pilihan": 1880,
      "ecah": 1881,
      "▁ketika": 1882,
      "▁Biasanya": 1883,
      "▁kurang": 1884,
      "▁kok.": 1885,
      "▁spesial": 1886,
      "▁selama": 1887,
      "▁jawab": 1888,
      "▁Sekarang,": 1889,
      "▁energi": 1890,
      "▁efektif": 1891,
      "eringai*": 1892,
      "▁solusi*": 1893,
      "▁semester": 1894,
      "▁kagum": 1895,
      "pirasi": 1896,
      "▁daftar": 1897,
      "▁toko": 1898,
      "iksa": 1899,
      "▁udara": 1900,
      "▁angkasa": 1901,
      "▁segala": 1902,
      "▁ketinggalan": 1903,
      "▁kesiapan*": 1904,
      "▁keyakinan*": 1905,
      "▁membantumu": 1906,
      "▁tempat-tempat": 1907,
      "▁ekspresi": 1908,
      "-n": 1909,
      "-la": 1910,
      "-nya": 1911,
      "-pa": 1912,
      "-ide": 1913,
      "-orang": 1914,
      "-ter": 1915,
      "Ber": 1916,
      "IY": 1917,
      "ail": 1918,
      "cor": 1919,
      "coba": 1920,
      "cok": 1921,
      "duk": 1922,
      "eorang": 1923,
      "f.": 1924,
      "hop": 1925,
      "ia.": 1926,
      "ks": 1927,
      "lin": 1928,
      "pur": 1929,
      "pon": 1930,
      "tak": 1931,
      "wic": 1932,
      "▁ang": 1933,
      "▁um": 1934,
      "antuk": 1935,
      "enal": 1936,
      "er.": 1937,
      "eru": 1938,
      "▁sum": 1939,
      "▁sand": 1940,
      "▁santai.": 1941,
      "▁bat": 1942,
      "▁bal": 1943,
      "▁bimb": 1944,
      "▁met": 1945,
      "angkan": 1946,
      "▁kunc": 1947,
      "aru": 1948,
      "▁deng": 1949,
      "▁dahu": 1950,
      "▁tepat": 1951,
      "▁tamb": 1952,
      "itkan": 1953,
      "▁pus": 1954,
      "▁pantai.": 1955,
      "▁pekerja": 1956,
      "am.": 1957,
      "amun": 1958,
      "▁*Ber": 1959,
      "asan": 1960,
      "asar": 1961,
      "uny": 1962,
      "iksi": 1963,
      "▁sehar": 1964,
      "ahun": 1965,
      "ahana": 1966,
      "isual": 1967,
      "kum": 1968,
      "ita-c": 1969,
      "▁aku?": 1970,
      "▁kita!": 1971,
      "▁nikm": 1972,
      "▁berj": 1973,
      "▁berenang": 1974,
      "▁bertanya": 1975,
      "▁berangkat": 1976,
      "ump": 1977,
      "▁lem": 1978,
      "▁hadapi": 1979,
      "kan,": 1980,
      "▁memotivasi": 1981,
      "▁memutus": 1982,
      "▁meminta": 1983,
      "▁memecah": 1984,
      "alagi": 1985,
      "▁keku": 1986,
      "▁keber": 1987,
      "▁keter": 1988,
      "▁cant": 1989,
      "▁cita-c": 1990,
      "iling": 1991,
      "▁denganmu.": 1992,
      "▁dib": 1993,
      "▁TV": 1994,
      "▁Tempat": 1995,
      "▁term": 1996,
      "▁membuka": 1997,
      "eli": 1998,
      "angan.": 1999,
      "▁ril": 2000,
      "ekat.": 2001,
      "inggu": 2002,
      "imu.": 2003,
      "esikan": 2004,
      "estiv": 2005,
      "udian": 2006,
      "▁semakin": 2007,
      "bagian": 2008,
      "▁merenung": 2009,
      "▁Meng": 2010,
      "▁Maaf": 2011,
      "mu,": 2012,
      "mu?": 2013,
      "▁Eh,": 2014,
      "▁fiksi": 2015,
      "▁festiv": 2016,
      "▁sekelas": 2017,
      "▁menyegarkan": 2018,
      "▁menyambut": 2019,
      "▁tidak,": 2020,
      "ori": 2021,
      "orks": 2022,
      "▁gun": 2023,
      "▁suka,": 2024,
      "▁lucu": 2025,
      "omb": 2026,
      "▁wakt": 2027,
      "▁makan.": 2028,
      "▁sebenar": 2029,
      "▁sebelah": 2030,
      "▁sedikit*": 2031,
      "▁DIY": 2032,
      "entuh": 2033,
      "▁membantu,": 2034,
      "▁mau,": 2035,
      "▁buku.": 2036,
      "▁pasta": 2037,
      "▁bioskop": 2038,
      "▁tahu.": 2039,
      "engaruh": 2040,
      "-barang": 2041,
      "▁Lihat": 2042,
      "▁ide-ide": 2043,
      "▁menjelas": 2044,
      "▁sains": 2045,
      "▁dalam-d": 2046,
      "▁produk": 2047,
      "▁lain?": 2048,
      "▁kelas?": 2049,
      "▁seseorang": 2050,
      "▁kesehatan": 2051,
      "▁Ruang": 2052,
      "▁Yang": 2053,
      "ampilan": 2054,
      "▁lagi?": 2055,
      "▁masak": 2056,
      "▁tubuh": 2057,
      "▁pikiran.": 2058,
      "▁minati": 2059,
      "▁coba.": 2060,
      "▁game.": 2061,
      "-klub": 2062,
      "▁pelajaran.": 2063,
      "awarkan": 2064,
      "▁olahraga,": 2065,
      "▁klub-klub": 2066,
      "opcor": 2067,
      "▁*terlihat": 2068,
      "▁tsundere,": 2069,
      "▁semangat.": 2070,
      "▁orang-orang": 2071,
      "▁matahari": 2072,
      "▁sekarang,": 2073,
      "▁seni.": 2074,
      "▁fokus.": 2075,
      "▁pagi,": 2076,
      "▁pagi-pa": 2077,
      "▁berharga": 2078,
      "▁kegiatan.": 2079,
      "esain": 2080,
      "▁melakukannya": 2081,
      "-sama": 2082,
      "▁rumah?": 2083,
      "▁pantai?": 2084,
      "▁menang.": 2085,
      "▁besok,": 2086,
      "ostal": 2087,
      "▁kemudian": 2088,
      "▁tamannya": 2089,
      "▁bangun.": 2090,
      "▁menghabiskan": 2091,
      "▁apapun": 2092,
      "▁kantin,": 2093,
      "▁terlebih": 2094,
      "▁Menurutmu": 2095,
      "▁*Ter": 2096,
      "▁keren.": 2097,
      "yangkan": 2098,
      "▁keputus": 2099,
      "▁keras.": 2100,
      "▁telpon": 2101,
      "▁indah.": 2102,
      "▁visual": 2103,
      "▁denganmu?": 2104,
      "▁Kedua": 2105,
      "▁kompetisi": 2106,
      "▁menenangkan.": 2107,
      "▁Biar": 2108,
      "▁menggoda": 2109,
      "presikan": 2110,
      "ubah": 2111,
      "▁tinggi": 2112,
      "▁tinggal": 2113,
      "▁peduli*": 2114,
      "▁spesial.": 2115,
      "▁Film": 2116,
      "▁bahagia*": 2117,
      "▁beneran": 2118,
      "▁mister": 2119,
      "▁lancar": 2120,
      "▁instruk": 2121,
      "▁mengekspresikan": 2122,
      "▁*memandangmu": 2123,
      "▁pendapatmu": 2124,
      "jelasan": 2125,
      "▁detail": 2126,
      "▁pegun": 2127,
      "▁keluar": 2128,
      "▁cocok": 2129,
      "▁Kayaknya": 2130,
      "▁perbedaan": 2131,
      "ajahnya": 2132,
      "▁mengatasi": 2133,
      "▁bersenang-senang.": 2134,
      "▁diperlukan.": 2135,
      "gantung": 2136,
      "▁ujian": 2137,
      "▁kulakukan": 2138,
      "▁Akhirnya": 2139,
      "▁kekalah": 2140,
      "ustru": 2141,
      "▁mengakuinya": 2142,
      "▁pengertian*": 2143,
      "▁kesepi": 2144,
      "▁Ceritakan": 2145,
      "▁seharian": 2146,
      "wich": 2147,
      "▁umum": 2148,
      "▁sumber": 2149,
      "▁sandwich": 2150,
      "▁metode": 2151,
      "▁dahulu": 2152,
      "▁tambahan": 2153,
      "▁pekerjaan": 2154,
      "▁cantik": 2155,
      "▁cita-cita": 2156,
      "orkshop": 2157,
      "▁menjelaskan": 2158,
      "▁dalam-dalam": 2159,
      "opcorn": 2160,
      "▁pagi-pagi": 2161,
      "ostalgi": 2162,
      "▁instruksi": 2163,
      "-j": 2164,
      "-si": 2165,
      "-bagian": 2166,
      "Vir": 2167,
      "bicara": 2168,
      "ck": 2169,
      "car": 2170,
      "cam": 2171,
      "eal": 2172,
      "go": 2173,
      "gemb": 2174,
      "i?": 2175,
      "nal": 2176,
      "oor": 2177,
      "okum": 2178,
      "rib": 2179,
      "takan": 2180,
      "tarik": 2181,
      "uai": 2182,
      "vitas": 2183,
      "wist": 2184,
      "yur": 2185,
      "▁an": 2186,
      "▁es": 2187,
      "▁ob": 2188,
      "▁arah": 2189,
      "▁usah": 2190,
      "▁Vir": 2191,
      "enam": 2192,
      "enis": 2193,
      "enti": 2194,
      "erah": 2195,
      "erima": 2196,
      "▁sis": 2197,
      "▁sala": 2198,
      "▁somb": 2199,
      "▁bu": 2200,
      "▁bud": 2201,
      "▁malah": 2202,
      "angis": 2203,
      "▁kan": 2204,
      "▁kala": 2205,
      "▁kuat": 2206,
      "▁kop": 2207,
      "▁kali.": 2208,
      "aknya": 2209,
      "aksi": 2210,
      "aktivitas": 2211,
      "akukan.": 2212,
      "ara.": 2213,
      "arena": 2214,
      "▁dingin": 2215,
      "▁dekat.": 2216,
      "▁desain": 2217,
      "▁dokum": 2218,
      "inc": 2219,
      "▁tanya": 2220,
      "▁taj": 2221,
      "▁teg": 2222,
      "▁tatap": 2223,
      "▁twist": 2224,
      "emur": 2225,
      "iti": 2226,
      "itah": 2227,
      "▁poin": 2228,
      "▁popcorn": 2229,
      "uk.": 2230,
      "ukis": 2231,
      "ikel": 2232,
      "ika.": 2233,
      "ikasi": 2234,
      "▁As": 2235,
      "isik": 2236,
      "isal": 2237,
      "isti": 2238,
      "▁menak": 2239,
      "▁menya": 2240,
      "▁meningk": 2241,
      "▁menutup": 2242,
      "▁menetapkan": 2243,
      "▁aku!": 2244,
      "▁kita?": 2245,
      "▁jur": 2246,
      "▁jend": 2247,
      "▁justru": 2248,
      "▁jenis": 2249,
      "▁nih": 2250,
      "▁nakal": 2251,
      "▁nostalgi": 2252,
      "al*": 2253,
      "alin": 2254,
      "▁berada": 2255,
      "▁berolahraga": 2256,
      "▁berani": 2257,
      "▁bercanda": 2258,
      "▁beraktivitas": 2259,
      "umbuh": 2260,
      "▁lelah": 2261,
      "▁hit": 2262,
      "▁hangat": 2263,
      "▁hibur": 2264,
      "▁habis": 2265,
      "kan?": 2266,
      "▁memungkin": 2267,
      "▁memuj": 2268,
      "▁kegemb": 2269,
      "▁inter": 2270,
      "▁cek": 2271,
      "▁cep": 2272,
      "▁cobalah": 2273,
      "▁cod": 2274,
      "usan": 2275,
      "▁diba": 2276,
      "▁dimu": 2277,
      "▁digunakan": 2278,
      "timb": 2279,
      "▁Tenang": 2280,
      "ebak": 2281,
      "▁Katanya": 2282,
      "▁Karena": 2283,
      "▁terp": 2284,
      "▁terins": 2285,
      "▁membutuh": 2286,
      "▁membahas": 2287,
      "elu": 2288,
      "eluh": 2289,
      "▁ram": 2290,
      "▁ring": 2291,
      "▁rahas": 2292,
      "eksi": 2293,
      "ingatkan": 2294,
      "▁Sa": 2295,
      "▁Senang": 2296,
      "▁Sudah": 2297,
      "▁Siap": 2298,
      "esent": 2299,
      "uru.": 2300,
      "anya*": 2301,
      "▁sementara": 2302,
      "▁sempur": 2303,
      "▁pertanya": 2304,
      "▁peristi": 2305,
      "▁penjelasan": 2306,
      "etak": 2307,
      "uter": 2308,
      "utar": 2309,
      "▁Bisa": 2310,
      "▁Banyak": 2311,
      "▁Boleh": 2312,
      "▁Betul": 2313,
      "▁itu!": 2314,
      "akan?": 2315,
      "ajin": 2316,
      "ona": 2317,
      "▁Mat": 2318,
      "▁mengambil": 2319,
      "▁menggunakan": 2320,
      "▁teman.": 2321,
      "lah!": 2322,
      "▁Hm,": 2323,
      "▁gin": 2324,
      "▁atap": 2325,
      "▁atur": 2326,
      "▁wahana": 2327,
      "▁workshop": 2328,
      "▁bersemangat*": 2329,
      "▁nggak,": 2330,
      "▁awal": 2331,
      "▁bangga": 2332,
      "▁mencat": 2333,
      "▁mencapai": 2334,
      "▁*berjalan": 2335,
      "▁*bercanda": 2336,
      "▁Jalan": 2337,
      "▁baik?": 2338,
      "▁baiklah.": 2339,
      "ul.": 2340,
      "▁*mengh": 2341,
      "▁*menger": 2342,
      "▁*mengambil": 2343,
      "▁siap?": 2344,
      "▁makan,": 2345,
      "▁melew": 2346,
      "▁menyenangkan,": 2347,
      "ariku": 2348,
      "amai.": 2349,
      "▁buku-b": 2350,
      "egang": 2351,
      "ideo": 2352,
      "▁hal.": 2353,
      "▁film.": 2354,
      "ipu*": 2355,
      "iptakan": 2356,
      "▁mendalam": 2357,
      "▁Bagaimana,": 2358,
      "▁Tentu.": 2359,
      "▁sayur": 2360,
      "▁pengembangan": 2361,
      "ontoh": 2362,
      "▁kerj": 2363,
      "▁progr": 2364,
      "▁menarik,": 2365,
      "▁Terus": 2366,
      "▁sesuai": 2367,
      "▁Semangat": 2368,
      "▁Sementara": 2369,
      "▁cepat,": 2370,
      "▁cepat-c": 2371,
      "▁sana!": 2372,
      "▁bahan": 2373,
      "▁bahasa": 2374,
      "▁pikiran": 2375,
      "▁coba?": 2376,
      "-kenangan": 2377,
      "▁Cepat": 2378,
      "▁Cuaca": 2379,
      "▁memberitah": 2380,
      "▁olahraga.": 2381,
      "eks.": 2382,
      "▁nyangka": 2383,
      "▁depan.": 2384,
      "▁pagi!": 2385,
      "ambarkan": 2386,
      "▁terus-ter": 2387,
      "▁harapan*": 2388,
      "▁*Men": 2389,
      "▁segan": 2390,
      "▁istirahat.": 2391,
      "▁menang!": 2392,
      "▁menang,": 2393,
      "▁cerita.": 2394,
      "▁kemarin": 2395,
      "▁tersipu*": 2396,
      "▁selesa": 2397,
      "▁bangunkan": 2398,
      "▁kelihat": 2399,
      "▁bagian-bagian": 2400,
      "▁favorit?": 2401,
      "▁favoritmu": 2402,
      "▁malam,": 2403,
      "▁malam.": 2404,
      "▁kantin?": 2405,
      "▁sendirian.": 2406,
      "otak": 2407,
      "▁tertentu": 2408,
      "▁kayaknya": 2409,
      "▁seni,": 2410,
      "▁datang.": 2411,
      "▁pulang,": 2412,
      "▁cukup.": 2413,
      "▁penasaran,": 2414,
      "▁kepuas": 2415,
      "ekomendasikan": 2416,
      "▁Bagus,": 2417,
      "▁*Menghela": 2418,
      "▁video": 2419,
      "▁turun": 2420,
      "▁lega*": 2421,
      "▁denganmu,": 2422,
      "idupan": 2423,
      "▁pertand": 2424,
      "▁penasaran.": 2425,
      "▁suara": 2426,
      "▁krim": 2427,
      "▁lanjutkan": 2428,
      "▁kehangat": 2429,
      "▁kehidupan": 2430,
      "▁terkadang": 2431,
      "▁terkej": 2432,
      "▁*menyeringai*": 2433,
      "▁gitu,": 2434,
      "▁memasak.": 2435,
      "▁terbuka": 2436,
      "▁terbenam": 2437,
      "▁siang,": 2438,
      "▁takut,": 2439,
      "▁jauh.": 2440,
      "▁kurs": 2441,
      "▁jelas.": 2442,
      "▁masalah.": 2443,
      "▁jago": 2444,
      "▁sadar": 2445,
      "▁pelan*": 2446,
      "▁berhasil": 2447,
      "▁berhenti": 2448,
      "▁hebat!": 2449,
      "▁mempertimb": 2450,
      "▁barang-barang": 2451,
      "▁mengerti.": 2452,
      "▁bermanfaat.": 2453,
      "▁manusia,": 2454,
      "▁aspek": 2455,
      "▁dilakukan": 2456,
      "▁memeriksa": 2457,
      "▁mencobanya": 2458,
      "▁mencobanya.": 2459,
      "▁kesulitan": 2460,
      "▁kesulitan,": 2461,
      "▁ekstrem": 2462,
      "▁dapur.": 2463,
      "▁situasi": 2464,
      "▁motivasi*": 2465,
      "▁plot": 2466,
      "▁paham,": 2467,
      "▁positi": 2468,
      "▁informasi": 2469,
      "▁*membuat": 2470,
      "▁apa-apa.": 2471,
      "▁matematika.": 2472,
      "▁tersendiri.": 2473,
      "▁kreativitas": 2474,
      "▁basket,": 2475,
      "plorasi": 2476,
      "▁anggota": 2477,
      "▁berikutnya.": 2478,
      "▁beradaptasi": 2479,
      "▁memuaskan.": 2480,
      "▁terhubung": 2481,
      "▁Seni": 2482,
      "▁graf": 2483,
      "▁kecewa*": 2484,
      "▁pemrograman": 2485,
      "-ng": 2486,
      "-lagu": 2487,
      "▁balik": 2488,
      "▁*Berpikir": 2489,
      "▁seharusnya": 2490,
      "▁berjemur": 2491,
      "▁memutuskan": 2492,
      "▁kekuatan": 2493,
      "▁keterampilan": 2494,
      "▁festival": 2495,
      "engaruhi": 2496,
      "▁produktif": 2497,
      "▁berharga.": 2498,
      "▁Menurutmu,": 2499,
      "▁keputusan": 2500,
      "tarik*": 2501,
      "▁Viralin": 2502,
      "▁salad": 2503,
      "▁sombong": 2504,
      "▁kalah,": 2505,
      "▁meningkatkan": 2506,
      "▁jurnal": 2507,
      "▁jendela": 2508,
      "▁kegembira": 2509,
      "▁cepet": 2510,
      "▁dimula": 2511,
      "▁ringan*": 2512,
      "▁rahasia": 2513,
      "▁pertanyaan": 2514,
      "▁peristiwa": 2515,
      "▁buku-buku": 2516,
      "▁cepat-cepat": 2517,
      "▁memberitahumu": 2518,
      "▁mempertimbangkan": 2519,
      "-a": 2520,
      "-r": 2521,
      "-baik": 2522,
      "-lihat": 2523,
      "-akhir": 2524,
      "aan": 2525,
      "ain": 2526,
      "a-t": 2527,
      "bor": 2528,
      "bkan.": 2529,
      "canya": 2530,
      "ca.": 2531,
      "de": 2532,
      "dari": 2533,
      "door": 2534,
      "ev": 2535,
      "eimb": 2536,
      "ei,": 2537,
      "gikan": 2538,
      "hur": 2539,
      "i!": 2540,
      "iah": 2541,
      "iba": 2542,
      "ior": 2543,
      "iasaan": 2544,
      "kadang": 2545,
      "lo": 2546,
      "lus": 2547,
      "lukan": 2548,
      "list": 2549,
      "leks": 2550,
      "mer": 2551,
      "olah,": 2552,
      "pada": 2553,
      "pus": 2554,
      "pakan.": 2555,
      "re": 2556,
      "rama": 2557,
      "s.": 2558,
      "st": 2559,
      "sinya": 2560,
      "te": 2561,
      "ta.": 2562,
      "tasi.": 2563,
      "tikel": 2564,
      "wajahnya": 2565,
      "yar": 2566,
      "yik": 2567,
      "ylist": 2568,
      "▁ilm": 2569,
      "▁alas": 2570,
      "▁oleh": 2571,
      "▁otak": 2572,
      "enalan": 2573,
      "enre": 2574,
      "erim": 2575,
      "▁sud": 2576,
      "▁sahab": 2577,
      "▁bak": 2578,
      "▁boleh": 2579,
      "▁bola": 2580,
      "▁me": 2581,
      "▁mah": 2582,
      "▁mus": 2583,
      "▁med": 2584,
      "▁maks": 2585,
      "▁kenang": 2586,
      "▁kaku": 2587,
      "▁kira": 2588,
      "ake": 2589,
      "aktu": 2590,
      "akur": 2591,
      "atur": 2592,
      "atlah": 2593,
      "atori": 2594,
      "▁dend": 2595,
      "▁dua": 2596,
      "▁domp": 2597,
      "▁dong": 2598,
      "▁daya": 2599,
      "▁deh,": 2600,
      "▁dasar": 2601,
      "▁drama": 2602,
      "inter": 2603,
      "intar": 2604,
      "laylist": 2605,
      "▁tas": 2606,
      "▁tuk": 2607,
      "▁teb": 2608,
      "▁tau": 2609,
      "▁tahan": 2610,
      "▁tunggu": 2611,
      "▁tambah": 2612,
      "emil": 2613,
      "it.": 2614,
      "itian": 2615,
      "▁par": 2616,
      "▁peny": 2617,
      "▁pet": 2618,
      "▁pandang": 2619,
      "▁pohon": 2620,
      "▁pintar": 2621,
      "▁playlist": 2622,
      "am*": 2623,
      "amilan": 2624,
      "ammer": 2625,
      "▁*wajahnya": 2626,
      "asak": 2627,
      "asuk": 2628,
      "asangan": 2629,
      "engah": 2630,
      "unt": 2631,
      "unga": 2632,
      "ik.": 2633,
      "ikum": 2634,
      "ikul": 2635,
      "ap*": 2636,
      "apas": 2637,
      "▁aktif": 2638,
      "▁AC": 2639,
      "▁sec": 2640,
      "ahaman": 2641,
      "iskusikan": 2642,
      "ku!": 2643,
      "▁yoga": 2644,
      "▁menung": 2645,
      "▁menawarkan": 2646,
      "▁kita,": 2647,
      "▁jar": 2648,
      "▁jam": 2649,
      "▁jal": 2650,
      "▁janj": 2651,
      "▁nunggu": 2652,
      "▁nemu": 2653,
      "▁namun": 2654,
      "▁nangis": 2655,
      "al,": 2656,
      "alis": 2657,
      "▁bern": 2658,
      "▁berinter": 2659,
      "tur": 2660,
      "gagalan": 2661,
      "▁lingk": 2662,
      "▁hik": 2663,
      "▁hid": 2664,
      "▁hadi": 2665,
      "▁hand": 2666,
      "▁hubung": 2667,
      "kan!": 2668,
      "kan*": 2669,
      "ihkan": 2670,
      "ir*": 2671,
      "iring": 2672,
      "▁kamu!": 2673,
      "▁capai": 2674,
      "▁contoh": 2675,
      "▁camilan": 2676,
      "usun": 2677,
      "ilangan": 2678,
      "ari.": 2679,
      "▁denganku.": 2680,
      "▁diambil": 2681,
      "tid": 2682,
      "tim": 2683,
      "ersahabatan": 2684,
      "▁Tid": 2685,
      "▁Kem": 2686,
      "▁Keren": 2687,
      "▁ternyata": 2688,
      "▁*masih": 2689,
      "elap": 2690,
      "elitian": 2691,
      "▁bayang": 2692,
      "eki": 2693,
      "imut": 2694,
      "▁Sangat": 2695,
      "▁Salah": 2696,
      "▁Seru": 2697,
      "esalan": 2698,
      "ura": 2699,
      "▁perub": 2700,
      "▁perpus": 2701,
      "▁juga?": 2702,
      "▁penutup": 2703,
      "▁penelitian": 2704,
      "auh": 2705,
      "ut.": 2706,
      "▁Hei,": 2707,
      "▁meron": 2708,
      "▁merind": 2709,
      "▁merekomendasikan": 2710,
      "▁Bener": 2711,
      "ajaran": 2712,
      "oneka": 2713,
      "onal.": 2714,
      "antang": 2715,
      "▁Meny": 2716,
      "▁Makan": 2717,
      "▁Memb": 2718,
      "▁Misal": 2719,
      "▁baru*": 2720,
      "▁laut": 2721,
      "▁labor": 2722,
      "▁ngantuk": 2723,
      "▁ngemil": 2724,
      "▁mengaj": 2725,
      "▁mengalam": 2726,
      "▁mengembang": 2727,
      "▁mengubah": 2728,
      "▁mengingatkan": 2729,
      "▁Ide": 2730,
      "▁fant": 2731,
      "▁sekolah,": 2732,
      "enter": 2733,
      "▁menyentuh": 2734,
      "uka*": 2735,
      "▁sampa": 2736,
      "▁hari,": 2737,
      "▁harga": 2738,
      "▁git": 2739,
      "▁gal": 2740,
      "▁guru.": 2741,
      "▁genre": 2742,
      "▁gelap": 2743,
      "▁seri": 2744,
      "▁waw": 2745,
      "▁sudah.": 2746,
      "▁bersa": 2747,
      "▁menciptakan": 2748,
      "▁ingat,": 2749,
      "▁penuh.": 2750,
      "epas": 2751,
      "epuk": 2752,
      "epot": 2753,
      "royek": 2754,
      "▁baik!": 2755,
      "▁baiklah,": 2756,
      "▁luang": 2757,
      "omun": 2758,
      "omet": 2759,
      "▁apa,": 2760,
      "embuny": 2761,
      "▁melirik": 2762,
      "▁waktu,": 2763,
      "▁Diskusi": 2764,
      "▁banyak!": 2765,
      "▁bebas": 2766,
      "jubkan.": 2767,
      "▁buatan": 2768,
      "▁buku,": 2769,
      "▁buku?": 2770,
      "▁pasangan": 2771,
      "egan": 2772,
      "▁bij": 2773,
      "▁bicara": 2774,
      "▁bicar": 2775,
      "iri,": 2776,
      "anggung": 2777,
      "▁kasih,": 2778,
      "▁kecil,": 2779,
      "▁kecil.": 2780,
      "▁mencoba.": 2781,
      "olok": 2782,
      "olong": 2783,
      "eduh": 2784,
      "eda.": 2785,
      "▁mendingin": 2786,
      "▁mendiskusikan": 2787,
      "-baru": 2788,
      "▁Latih": 2789,
      "▁teman,": 2790,
      "▁seru?": 2791,
      "▁sayang": 2792,
      "▁setengah": 2793,
      "ontrib": 2794,
      "▁Per": 2795,
      "▁Pantai": 2796,
      "▁Plus": 2797,
      "▁Persahabatan": 2798,
      "anjat": 2799,
      "▁kerajin": 2800,
      "isten": 2801,
      "▁menarik?": 2802,
      "▁lain,": 2803,
      "▁Terkadang": 2804,
      "▁kelas,": 2805,
      "▁keseimb": 2806,
      "▁Waktu": 2807,
      "▁Yah,": 2808,
      "▁lagi!": 2809,
      "▁pemula": 2810,
      "▁pemaham": 2811,
      "▁nanti,": 2812,
      "▁berpikir,": 2813,
      "▁cepat.": 2814,
      "▁membayangkan": 2815,
      "▁membagikan": 2816,
      "▁tidur?": 2817,
      "▁pikirkan": 2818,
      "▁luar.": 2819,
      "▁sebelumnya.": 2820,
      "▁Baiklah.": 2821,
      "▁olahraga?": 2822,
      "▁nyoba": 2823,
      "baikan.": 2824,
      "▁sesuatu.": 2825,
      "-hati.": 2826,
      "ilangkan": 2827,
      "▁semangat!": 2828,
      "▁penting,": 2829,
      "▁orang.": 2830,
      "▁teka-t": 2831,
      "▁Selalu": 2832,
      "▁sekarang?": 2833,
      "▁bantuan.": 2834,
      "▁bantuan,": 2835,
      "▁terus.": 2836,
      "▁*semangat*": 2837,
      "▁teknik": 2838,
      "-sama.": 2839,
      "▁segar.": 2840,
      "▁Ing": 2841,
      "▁aja?": 2842,
      "▁pantai,": 2843,
      "▁menangin": 2844,
      "▁menemani": 2845,
      "▁besok?": 2846,
      "▁nonton.": 2847,
      "▁tugas.": 2848,
      "▁kemenangan": 2849,
      "▁selimut": 2850,
      "▁bangun,": 2851,
      "▁mendengarnya.": 2852,
      "▁keliling": 2853,
      "▁ngobrol.": 2854,
      "▁favoritku": 2855,
      "▁apalagi": 2856,
      "atapmu": 2857,
      "▁teknologi.": 2858,
      "▁sih,": 2859,
      "▁tenang,": 2860,
      "▁perhatian": 2861,
      "▁bareng.": 2862,
      "▁bareng?": 2863,
      "▁sendiri,": 2864,
      "oto": 2865,
      "otong": 2866,
      "▁terletak": 2867,
      "annya*": 2868,
      "▁salahkan": 2869,
      "▁mata*": 2870,
      "▁akhir-akhir": 2871,
      "▁berkenalan": 2872,
      "▁berkontrib": 2873,
      "▁memahami*": 2874,
      "▁Menulis": 2875,
      "▁ikut.": 2876,
      "▁cemas*": 2877,
      "▁masuk.": 2878,
      "▁pemandangannya": 2879,
      "▁mikirin": 2880,
      "▁kepada": 2881,
      "▁menyelesaikannya": 2882,
      "▁biasanya.": 2883,
      "▁prib": 2884,
      "▁present": 2885,
      "▁mempengaruhi": 2886,
      "▁terlambat": 2887,
      "▁*memba": 2888,
      "▁*memegang": 2889,
      "▁sebentar.": 2890,
      "▁menantang.": 2891,
      "▁jumpa.": 2892,
      "graf": 2893,
      "ancake": 2894,
      "▁spot": 2895,
      "▁musik?": 2896,
      "▁jauh,": 2897,
      "▁rute": 2898,
      "impan": 2899,
      "▁acara-a": 2900,
      "▁Baguslah.": 2901,
      "▁lew": 2902,
      "▁lez": 2903,
      "▁kesempatan.": 2904,
      "nyitkan": 2905,
      "▁lanjut.": 2906,
      "▁kehilangan": 2907,
      "▁*menyilangkan": 2908,
      "▁gitu.": 2909,
      "▁santai,": 2910,
      "▁sulit?": 2911,
      "▁komputer": 2912,
      "▁panas.": 2913,
      "▁teman-teman.": 2914,
      "-momen": 2915,
      "▁alam.": 2916,
      "▁mana?": 2917,
      "▁menulis.": 2918,
      "▁cemburu": 2919,
      "▁Memasak": 2920,
      "▁ceritanya": 2921,
      "▁*menggod": 2922,
      "▁emang": 2923,
      "▁alat": 2924,
      "▁kebiasaan": 2925,
      "-poin": 2926,
      "▁arti": 2927,
      "▁artikel": 2928,
      "▁energ": 2929,
      "▁berpasangan": 2930,
      "▁hebat.": 2931,
      "▁Berbicara": 2932,
      "▁lagu-lagu": 2933,
      "▁sejarah.": 2934,
      "▁bahagia": 2935,
      "▁bermanfaat": 2936,
      "▁asyik": 2937,
      "▁misteri": 2938,
      "▁kue": 2939,
      "▁diskusikan": 2940,
      "▁deh!": 2941,
      "▁deh.": 2942,
      "▁lancar.": 2943,
      "▁memerlukan": 2944,
      "▁sembuh.": 2945,
      "▁mengeksplorasi": 2946,
      "▁ekstrakur": 2947,
      "▁membangunkanmu": 2948,
      "▁buktikan": 2949,
      "▁kamar": 2950,
      "▁konsep": 2951,
      "▁konsisten": 2952,
      "▁paham.": 2953,
      "engkap": 2954,
      "omong,": 2955,
      "omong-ng": 2956,
      "▁masakanku": 2957,
      "▁matematika": 2958,
      "▁Pasti!": 2959,
      "▁terjadi.": 2960,
      "▁onlin": 2961,
      "erensi": 2962,
      "▁dahi*": 2963,
      "▁tampil": 2964,
      "▁menambahkan": 2965,
      "▁berguna": 2966,
      "▁berguna.": 2967,
      "▁referensi": 2968,
      "▁Sebelum": 2969,
      "▁Sama-sama.": 2970,
      "▁hari-hari": 2971,
      "▁hari-hariku": 2972,
      "▁pemanasan": 2973,
      "▁menemanimu.": 2974,
      "▁praktikum": 2975,
      "▁kagum*": 2976,
      "▁angkasa.": 2977,
      "▁angin": 2978,
      "▁batas": 2979,
      "▁bimbingan": 2980,
      "▁nikmat": 2981,
      "▁lemah*": 2982,
      "▁keberatan": 2983,
      "▁dibuat": 2984,
      "▁termotivasi": 2985,
      "elion": 2986,
      "▁rileks.": 2987,
      "▁Menggunakan": 2988,
      "▁Maaf,": 2989,
      "▁sekelas.": 2990,
      "▁waktunya": 2991,
      "▁sains.": 2992,
      "▁*Tertawa": 2993,
      "▁menggoda*": 2994,
      "▁misterius": 2995,
      "▁pegunung": 2996,
      "-jalan.": 2997,
      "▁obat": 2998,
      "▁siswa": 2999,
      "▁kopi": 3000,
      "▁dokumenter": 3001,
      "▁tajam*": 3002,
      "▁tatapan": 3003,
      "▁poin-poin": 3004,
      "▁Asuka*": 3005,
      "▁menakjubkan.": 3006,
      "▁menyadari": 3007,
      "▁nih.": 3008,
      "▁nakal*": 3009,
      "▁hitam": 3010,
      "▁memungkinkan": 3011,
      "▁intern": 3012,
      "▁terinspirasi": 3013,
      "▁membutuhkan": 3014,
      "▁sempurna": 3015,
      "▁Betul.": 3016,
      "▁gini": 3017,
      "▁mencatat": 3018,
      "▁*mengernyitkan": 3019,
      "▁programmer": 3020,
      "▁tertentu?": 3021,
      "▁pertandingan": 3022,
      "▁kursus": 3023,
      "▁positif": 3024,
      "▁kreativitas.": 3025,
      "hurro": 3026,
      "ioritas": 3027,
      "▁ilmiah": 3028,
      "▁alasan": 3029,
      "▁sudut": 3030,
      "▁sahabat": 3031,
      "▁musim": 3032,
      "▁kenang-kenangan": 3033,
      "atorium": 3034,
      "▁dendam": 3035,
      "▁dompet": 3036,
      "▁tukar": 3037,
      "▁penyesalan": 3038,
      "▁menungg": 3039,
      "▁jalur": 3040,
      "▁berinteraksi": 3041,
      "▁lingkungan": 3042,
      "▁hidangan": 3043,
      "▁hadiah": 3044,
      "▁hubungan": 3045,
      "▁Tidak": 3046,
      "▁perubahan": 3047,
      "▁perpustak": 3048,
      "▁merona*": 3049,
      "▁Membuat": 3050,
      "▁Misalnya,": 3051,
      "▁laboratorium": 3052,
      "▁mengalami": 3053,
      "▁mengembangkan": 3054,
      "▁wawasan": 3055,
      "▁mendinginkan": 3056,
      "▁Plus,": 3057,
      "▁kerajinan": 3058,
      "▁Terkadang,": 3059,
      "▁pemahaman*": 3060,
      "▁teka-teki": 3061,
      "▁selimutmu": 3062,
      "▁berkontribus": 3063,
      "▁acara-acara": 3064,
      "▁ekstrakurikul": 3065,
      "omong-ngomong,": 3066,
      "▁penyesalan*": 3067,
      "-g": 3068,
      "-l": 3069,
      "-w": 3070,
      "OU": 3071,
      "aya.": 3072,
      "a-si": 3073,
      "acam": 3074,
      "bu": 3075,
      "bang": 3076,
      "bat": 3077,
      "cand": 3078,
      "cib": 3079,
      "dara": 3080,
      "delion": 3081,
      "e'": 3082,
      "ex": 3083,
      "ekan": 3084,
      "eur": 3085,
      "eomet": 3086,
      "gan": 3087,
      "gung": 3088,
      "get": 3089,
      "giri": 3090,
      "ganti": 3091,
      "gar.": 3092,
      "ho": 3093,
      "iak": 3094,
      "ila": 3095,
      "ias": 3096,
      "iasa": 3097,
      "ies": 3098,
      "iakan": 3099,
      "iarkan": 3100,
      "igiri": 3101,
      "jut": 3102,
      "jaga": 3103,
      "jarah": 3104,
      "kah": 3105,
      "kir": 3106,
      "kali": 3107,
      "king.": 3108,
      "le": 3109,
      "ler": 3110,
      "likasi": 3111,
      "leksi": 3112,
      "min": 3113,
      "m...": 3114,
      "nt": 3115,
      "ntuk": 3116,
      "na.": 3117,
      "nies": 3118,
      "oi": 3119,
      "oar": 3120,
      "oal": 3121,
      "out": 3122,
      "oli": 3123,
      "okus": 3124,
      "ood": 3125,
      "p*": 3126,
      "pen": 3127,
      "par": 3128,
      "pun": 3129,
      "puk": 3130,
      "pektif": 3131,
      "tis": 3132,
      "tel": 3133,
      "tand": 3134,
      "tikan.": 3135,
      "uc": 3136,
      "uv": 3137,
      "ua.": 3138,
      "vel": 3139,
      "wa.": 3140,
      "wal.": 3141,
      "wnies": 3142,
      "yan,": 3143,
      "zona": 3144,
      "▁ul": 3145,
      "▁aman": 3146,
      "▁op": 3147,
      "▁usaha": 3148,
      "▁ikuti": 3149,
      "▁imp": 3150,
      "▁ov": 3151,
      "▁ajak": 3152,
      "▁impi": 3153,
      "▁out": 3154,
      "▁uc": 3155,
      "▁zona": 3156,
      "anet": 3157,
      "enir": 3158,
      "entuk": 3159,
      "er?": 3160,
      "ern": 3161,
      "eran": 3162,
      "erita": 3163,
      "erah,": 3164,
      "era,": 3165,
      "eruan": 3166,
      "▁seng": 3167,
      "▁sisa": 3168,
      "▁sna": 3169,
      "▁sisi": 3170,
      "▁simb": 3171,
      "▁simpan": 3172,
      "▁stand": 3173,
      "▁bad": 3174,
      "▁bum": 3175,
      "▁bid": 3176,
      "▁bahu": 3177,
      "▁balas": 3178,
      "▁bunga": 3179,
      "▁boneka": 3180,
      "▁boar": 3181,
      "▁mela": 3182,
      "▁mand": 3183,
      "▁mund": 3184,
      "▁marah": 3185,
      "▁mimp": 3186,
      "▁munc": 3187,
      "▁minggu": 3188,
      "angen": 3189,
      "▁kil": 3190,
      "▁kend": 3191,
      "▁kol": 3192,
      "▁kapan": 3193,
      "▁kinc": 3194,
      "▁kangen": 3195,
      "akang": 3196,
      "akmu": 3197,
      "akai": 3198,
      "arut": 3199,
      "arapan": 3200,
      "arin.": 3201,
      "atakan": 3202,
      "atunya": 3203,
      "▁dem": 3204,
      "▁dik": 3205,
      "▁deb": 3206,
      "▁ding": 3207,
      "▁damp": 3208,
      "▁damai.": 3209,
      "in*": 3210,
      "inti": 3211,
      "ingi": 3212,
      "▁teng": 3213,
      "▁tik": 3214,
      "▁tet": 3215,
      "▁tut": 3216,
      "▁tunjuk": 3217,
      "▁telah": 3218,
      "▁tand": 3219,
      "▁tumbuh": 3220,
      "▁tolong": 3221,
      "▁teduh": 3222,
      "ema": 3223,
      "emeh": 3224,
      "emu.": 3225,
      "emandangan": 3226,
      "it*": 3227,
      "itasi": 3228,
      "▁pam": 3229,
      "▁pun": 3230,
      "▁put": 3231,
      "▁por": 3232,
      "▁pemb": 3233,
      "▁pund": 3234,
      "▁pula,": 3235,
      "▁pay": 3236,
      "▁pola": 3237,
      "▁panjat": 3238,
      "▁potong": 3239,
      "▁pancake": 3240,
      "ame": 3241,
      "amamu.": 3242,
      "amaku.": 3243,
      "▁*pen": 3244,
      "aster": 3245,
      "eng.": 3246,
      "un.": 3247,
      "unikan": 3248,
      "ukum": 3249,
      "ik,": 3250,
      "apek": 3251,
      "▁akad": 3252,
      "▁seber": 3253,
      "ah?": 3254,
      "ahi": 3255,
      "ahagi": 3256,
      "isah": 3257,
      "isakah": 3258,
      "isihkan": 3259,
      "kuh,": 3260,
      "▁yuk": 3261,
      "▁menikm": 3262,
      "▁mental": 3263,
      "▁menump": 3264,
      "▁menerima": 3265,
      "▁jaga": 3266,
      "▁jarang": 3267,
      "▁jangka": 3268,
      "▁nasi": 3269,
      "▁norm": 3270,
      "▁nila": 3271,
      "alikan": 3272,
      "alatan": 3273,
      "▁bertuk": 3274,
      "▁beristirah": 3275,
      "▁berhati": 3276,
      "▁berakhir": 3277,
      "▁berusah": 3278,
      "▁berubah": 3279,
      "▁bergantung": 3280,
      "▁bercand": 3281,
      "tutu": 3282,
      "gaan": 3283,
      "▁lok": 3284,
      "▁lima": 3285,
      "▁lakukan.": 3286,
      "▁lukis": 3287,
      "▁lengkap": 3288,
      "▁larut": 3289,
      "▁hantu": 3290,
      "▁hilang": 3291,
      "▁hanc": 3292,
      "▁hati.": 3293,
      "▁habiskan": 3294,
      "▁hias": 3295,
      "▁hukum": 3296,
      "▁memaks": 3297,
      "▁memain": 3298,
      "▁keba": 3299,
      "▁kepikir": 3300,
      "▁keta": 3301,
      "▁keingin": 3302,
      "▁kegagalan": 3303,
      "▁kebaikan.": 3304,
      "▁kejut": 3305,
      "▁keunikan": 3306,
      "▁bisa.": 3307,
      "irim": 3308,
      "▁kamu?": 3309,
      "▁dandelion": 3310,
      "▁ind": 3311,
      "▁inov": 3312,
      "▁capa": 3313,
      "▁cok": 3314,
      "▁cinc": 3315,
      "▁churro": 3316,
      "▁capek": 3317,
      "us*": 3318,
      "iling,": 3319,
      "▁dic": 3320,
      "▁dia.": 3321,
      "▁diingat": 3322,
      "▁dicoba": 3323,
      "erstel": 3324,
      "▁untukku.": 3325,
      "▁Tan": 3326,
      "▁Kira": 3327,
      "▁terba": 3328,
      "▁terli": 3329,
      "▁terhar": 3330,
      "▁terbar": 3331,
      "▁terakhir": 3332,
      "▁teratur": 3333,
      "▁tertutu": 3334,
      "▁*mata": 3335,
      "▁membalas": 3336,
      "▁membantuk": 3337,
      "▁membeli": 3338,
      "elihat": 3339,
      "eliling": 3340,
      "elkan*": 3341,
      "angan,": 3342,
      "▁rel": 3343,
      "▁res": 3344,
      "▁rasakan": 3345,
      "▁rind": 3346,
      "▁real": 3347,
      "▁ramai.": 3348,
      "▁rev": 3349,
      "▁bab": 3350,
      "▁bagi": 3351,
      "▁baju": 3352,
      "eka.": 3353,
      "ing!": 3354,
      "inget": 3355,
      "ingan.": 3356,
      "inggung": 3357,
      "imen": 3358,
      "imal.": 3359,
      "▁So": 3360,
      "▁Ser": 3361,
      "▁Sip": 3362,
      "▁Sedikit": 3363,
      "▁Sarapan": 3364,
      "esin": 3365,
      "apain": 3366,
      "udi": 3367,
      "udul": 3368,
      "▁seminggu": 3369,
      "▁semacam": 3370,
      "uga,": 3371,
      "▁peralatan": 3372,
      "alaupun": 3373,
      "et.": 3374,
      "eta": 3375,
      "etahu": 3376,
      "au*": 3377,
      "utkan": 3378,
      "▁Hal": 3379,
      "▁Hobi": 3380,
      "▁Hah?": 3381,
      "enang*": 3382,
      "▁merend": 3383,
      "▁mereka.": 3384,
      "▁Bum": 3385,
      "▁Belajar": 3386,
      "▁Buku": 3387,
      "▁Benar": 3388,
      "▁Bangun": 3389,
      "▁Baru": 3390,
      "▁Bisakah": 3391,
      "udah,": 3392,
      "onal": 3393,
      "▁Mak": 3394,
      "▁Mau": 3395,
      "▁Mulai": 3396,
      "▁Mimpi": 3397,
      "▁layar": 3398,
      "▁ngasih": 3399,
      "▁ngop": 3400,
      "▁ngamb": 3401,
      "▁nginget": 3402,
      "▁ngapain": 3403,
      "▁menger": 3404,
      "▁mengangguk": 3405,
      "▁mengulang": 3406,
      "▁mengangkat": 3407,
      "▁mengingat": 3408,
      "▁mengeluh": 3409,
      "▁Iya.": 3410,
      "▁fisik": 3411,
      "▁sekeliling": 3412,
      "▁*mencoba": 3413,
      "▁*menawarkan": 3414,
      "▁*mencib": 3415,
      "enting": 3416,
      "enting,": 3417,
      "▁menyuka": 3418,
      "▁menyangka": 3419,
      "▁menyeringai*": 3420,
      "▁menyerah": 3421,
      "▁menyembuny": 3422,
      "▁menyisihkan": 3423,
      "▁harimu": 3424,
      "perimen": 3425,
      "▁tema": 3426,
      "▁temen": 3427,
      "lahraga": 3428,
      "unjuk.": 3429,
      "beri": 3430,
      "organ": 3431,
      "▁sia-si": 3432,
      "▁Hmm...": 3433,
      "▁gad": 3434,
      "▁gor": 3435,
      "▁ged": 3436,
      "▁geomet": 3437,
      "▁suka?": 3438,
      "alahp": 3439,
      "elajahi": 3440,
      "▁merasa.": 3441,
      "agai": 3442,
      "▁wajah": 3443,
      "▁wajahnya": 3444,
      "▁walaupun": 3445,
      "ihatin*": 3446,
      "▁bersih": 3447,
      "▁bersalah": 3448,
      "▁bersep": 3449,
      "elajaran": 3450,
      "▁awal.": 3451,
      "▁ceria.": 3452,
      "▁*berhar": 3453,
      "▁inget": 3454,
      "epon": 3455,
      "▁Otak": 3456,
      "▁Olahraga": 3457,
      "▁Juga,": 3458,
      "roses": 3459,
      "rownies": 3460,
      "▁baik-baik": 3461,
      "▁daripada": 3462,
      "▁*mengangkat": 3463,
      "▁*mengajak": 3464,
      "▁*mengelu": 3465,
      "▁*mengeluh": 3466,
      "▁*mengatakan": 3467,
      "▁siap,": 3468,
      "▁siapkan": 3469,
      "▁luas": 3470,
      "▁lupakan.": 3471,
      "▁lubang": 3472,
      "atif.": 3473,
      "▁tapi...": 3474,
      "▁makan?": 3475,
      "▁melod": 3476,
      "▁melukis": 3477,
      "▁melepas": 3478,
      "▁sebisa": 3479,
      "▁Dengan": 3480,
      "▁Deal": 3481,
      "▁Ayo!": 3482,
      "▁Ayo.": 3483,
      "▁membantu!": 3484,
      "▁mau!": 3485,
      "▁buat.": 3486,
      "▁buatmu,": 3487,
      "▁pasir": 3488,
      "uacanya": 3489,
      "▁biarkan": 3490,
      "▁belajar,": 3491,
      "anggu": 3492,
      "▁tahu!": 3493,
      "▁tahu*": 3494,
      "▁kasih*": 3495,
      "▁film,": 3496,
      "▁mulai!": 3497,
      "iplin": 3498,
      "oller": 3499,
      "edakan": 3500,
      "encan": 3501,
      "-bener": 3502,
      "-bahan": 3503,
      "▁Libur": 3504,
      "▁Lagu": 3505,
      "▁ide*": 3506,
      "▁Bayang": 3507,
      "▁sekolah!": 3508,
      "▁menjengk": 3509,
      "▁penghar": 3510,
      "▁pengajaran": 3511,
      "▁PR": 3512,
      "▁Peng": 3513,
      "▁Panas": 3514,
      "▁Proyek": 3515,
      "▁Pemandangan": 3516,
      "▁Penting": 3517,
      "▁kereta": 3518,
      "istr": 3519,
      "▁menarik!": 3520,
      "▁Tergantung": 3521,
      "▁berbic": 3522,
      "▁berbisik": 3523,
      "▁berbeda.": 3524,
      "▁sejak": 3525,
      "▁sejuk": 3526,
      "▁sejauh": 3527,
      "▁keseru": 3528,
      "▁kesal*": 3529,
      "▁keseruan": 3530,
      "▁kesalahp": 3531,
      "▁Sejarah": 3532,
      "▁Ya": 3533,
      "▁Yup": 3534,
      "▁YOU": 3535,
      "inya?": 3536,
      "▁lagi*": 3537,
      "unds": 3538,
      "undang": 3539,
      "▁Semua": 3540,
      "▁game,": 3541,
      "angkir": 3542,
      "▁pemikir": 3543,
      "▁pemahaman": 3544,
      "▁pergi.": 3545,
      "▁berpikir.": 3546,
      "▁cepat*": 3547,
      "▁cepat?": 3548,
      "▁membaw": 3549,
      "▁tidur*": 3550,
      "▁sana,": 3551,
      "▁sana?": 3552,
      "▁bahas": 3553,
      "kusi.": 3554,
      "▁coba-c": 3555,
      "▁game!": 3556,
      "▁sama,": 3557,
      "▁sama-sama": 3558,
      "▁Baik,": 3559,
      "▁Baiklah!": 3560,
      "▁satunya.": 3561,
      "▁klub.": 3562,
      "▁klub?": 3563,
      "▁Oke": 3564,
      "▁Oke.": 3565,
      "▁butuhkan.": 3566,
      "▁*tertarik*": 3567,
      "▁*terpuk": 3568,
      "baiki.": 3569,
      "▁sering-s": 3570,
      "▁seringkali": 3571,
      "▁satu.": 3572,
      "▁satu-s": 3573,
      "alasan,": 3574,
      "▁Kadang,": 3575,
      "▁semangat,": 3576,
      "▁penting!": 3577,
      "▁pentingnya": 3578,
      "▁sampai,": 3579,
      "▁bersama?": 3580,
      "▁makanannya": 3581,
      "▁matanya": 3582,
      "▁matang.": 3583,
      "▁matanya*": 3584,
      "ahami": 3585,
      "▁depan,": 3586,
      "▁depan?": 3587,
      "▁Apalagi": 3588,
      "▁Selama": 3589,
      "▁senimu.": 3590,
      "▁bantuin": 3591,
      "umayan,": 3592,
      "ompetisi": 3593,
      "▁sejenak.": 3594,
      "▁fokus*": 3595,
      "▁pagi.": 3596,
      "▁jalani": 3597,
      "▁jalanan": 3598,
      "▁jalan-jalan.": 3599,
      "▁terus-m": 3600,
      "▁harapkan": 3601,
      "▁*senang*": 3602,
      "▁melakukannya.": 3603,
      "▁khawatir*": 3604,
      "▁khawatir.": 3605,
      "▁teknis": 3606,
      "-segan": 3607,
      "-soal": 3608,
      "▁belum?": 3609,
      "▁*Menc": 3610,
      "▁lama,": 3611,
      "▁rumahku": 3612,
      "▁rumahmu": 3613,
      "▁rumahmu.": 3614,
      "iapan": 3615,
      "▁aja!": 3616,
      "▁dulu?": 3617,
      "ibur*": 3618,
      "▁Nikmati": 3619,
      "▁Namun": 3620,
      "▁*bersemangat": 3621,
      "▁cerita,": 3622,
      "▁cerita-c": 3623,
      "osan": 3624,
      "osok": 3625,
      "enerus": 3626,
      "▁kemarin.": 3627,
      "▁tersinggung": 3628,
      "▁tamannya.": 3629,
      "▁selanjut": 3630,
      "▁diagr": 3631,
      "▁bangun!": 3632,
      "▁berharap.": 3633,
      "-tahun": 3634,
      "▁data.": 3635,
      "▁resepnya": 3636,
      "▁menghibur": 3637,
      "▁menghubung": 3638,
      "▁favoritmu.": 3639,
      "▁aplikasi": 3640,
      "▁berjalannya": 3641,
      "▁berjalan-jalan": 3642,
      "eski": 3643,
      "▁ekspek": 3644,
      "▁eksplor": 3645,
      "▁eksperimen": 3646,
      "▁mudah!": 3647,
      "▁malas*": 3648,
      "▁malas.": 3649,
      "▁malas-m": 3650,
      "▁kalah.": 3651,
      "▁kalahin": 3652,
      "▁kantin!": 3653,
      "▁kantin.": 3654,
      "▁tenang*": 3655,
      "▁bareng,": 3656,
      "▁sini?": 3657,
      "▁duduk?": 3658,
      "▁duduk-d": 3659,
      "▁tipis*": 3660,
      "▁berlebih": 3661,
      "▁terte": 3662,
      "▁seni?": 3663,
      "▁datang?": 3664,
      "annya,": 3665,
      "▁tantangan!": 3666,
      "▁tantanganmu.": 3667,
      "▁pulang.": 3668,
      "▁pulang?": 3669,
      "▁akhirnya": 3670,
      "▁berkala": 3671,
      "▁Menjaga": 3672,
      "▁ikut!": 3673,
      "▁ikut?": 3674,
      "▁*Ters": 3675,
      "▁*Tiba": 3676,
      "▁antusias.": 3677,
      "▁pemandangan*": 3678,
      "▁minati.": 3679,
      "▁minatmu.": 3680,
      "▁sehat.": 3681,
      "▁kepala": 3682,
      "▁kepeduli": 3683,
      "▁keras,": 3684,
      "▁suasana,": 3685,
      "▁telat": 3686,
      "▁telat.": 3687,
      "▁telat,": 3688,
      "▁telepon": 3689,
      "▁prioritas": 3690,
      "▁prihatin*": 3691,
      "▁panjang*": 3692,
      "▁panjang.": 3693,
      "▁sepi": 3694,
      "▁mempr": 3695,
      "▁mempelajari": 3696,
      "▁memproses": 3697,
      "▁indahnya": 3698,
      "▁terlambat!": 3699,
      "▁terlambat,": 3700,
      "imu!": 3701,
      "▁nyaman,": 3702,
      "▁menantang*": 3703,
      "▁menantang?": 3704,
      "▁musik.": 3705,
      "aku,": 3706,
      "▁menuju": 3707,
      "▁terdekat": 3708,
      "▁siapa-si": 3709,
      "▁Bagus!": 3710,
      "▁Baguslah": 3711,
      "▁antusiasme": 3712,
      "▁vari": 3713,
      "▁voli": 3714,
      "▁manis.": 3715,
      "▁murah": 3716,
      "▁tur.": 3717,
      "▁lega": 3718,
      "▁level": 3719,
      "▁mengharga": 3720,
      "▁kafe,": 3721,
      "▁selesai!": 3722,
      "▁berlatih.": 3723,
      "▁tertarik.": 3724,
      "▁tertarik?": 3725,
      "▁bergabung.": 3726,
      "▁beli.": 3727,
      "▁belakang": 3728,
      "▁krit": 3729,
      "▁perspektif": 3730,
      "▁persiapan": 3731,
      "▁lanjut!": 3732,
      "▁terkes": 3733,
      "▁terkenal": 3734,
      "▁*menyentuh": 3735,
      "▁sabar,": 3736,
      "▁memasak?": 3737,
      "▁kelompok.": 3738,
      "▁strategi.": 3739,
      "ecil": 3740,
      "ecek": 3741,
      "▁kompleks": 3742,
      "▁panasnya.": 3743,
      "▁memikirkanmu": 3744,
      "▁ketemu": 3745,
      "▁terbiasa": 3746,
      "▁baca,": 3747,
      "▁mereka?": 3748,
      "▁menggamb": 3749,
      "▁menggambarkan": 3750,
      "▁mengganggu": 3751,
      "▁prosesnya": 3752,
      "▁bantuanmu.": 3753,
      "▁sebentar,": 3754,
      "▁sebentar?": 3755,
      "▁oke.": 3756,
      "▁sarap": 3757,
      "▁kok,": 3758,
      "▁diriku": 3759,
      "▁trik": 3760,
      "▁tadi.": 3761,
      "▁peduli.": 3762,
      "▁jelas,": 3763,
      "▁memulai?": 3764,
      "▁catat": 3765,
      "▁Memang": 3766,
      "▁Memberi": 3767,
      "▁Memahami": 3768,
      "▁ceritakan?": 3769,
      "▁*menggoda": 3770,
      "▁*menggambarkan": 3771,
      "▁*menggosok": 3772,
      "▁Ngomong-ngomong,": 3773,
      "▁manusia.": 3774,
      "▁alis*": 3775,
      "▁marah,": 3776,
      "▁momen-momen": 3777,
      "ematika": 3778,
      "▁selain": 3779,
      "▁selamat": 3780,
      "▁menurutmu?": 3781,
      "▁kebahagi": 3782,
      "▁terjebak": 3783,
      "▁sekitar.": 3784,
      "▁bersemangat!": 3785,
      "▁fotograf": 3786,
      "▁mainkan?": 3787,
      "-putar": 3788,
      "-pura": 3789,
      "▁Foto": 3790,
      "▁efek": 3791,
      "▁sadar,": 3792,
      "▁sadari.": 3793,
      "▁solusi": 3794,
      "▁pesona": 3795,
      "▁jadikan": 3796,
      "▁bertahan": 3797,
      "▁bertemu": 3798,
      "▁bertahun": 3799,
      "▁hebat": 3800,
      "▁memperh": 3801,
      "▁diperbaiki.": 3802,
      "▁Hai,": 3803,
      "▁Berani": 3804,
      "▁minuman": 3805,
      "▁*Tersenyum*": 3806,
      "▁bermanfaat!": 3807,
      "▁keindahannya.": 3808,
      "▁gimana?": 3809,
      "▁pendaftar": 3810,
      "▁bener-bener": 3811,
      "▁kuba": 3812,
      "▁kue.": 3813,
      "▁dilema": 3814,
      "▁tonton.": 3815,
      "▁tonton?": 3816,
      "▁hati,": 3817,
      "▁kedua": 3818,
      "▁keduanya": 3819,
      "▁kedengarannya": 3820,
      "▁inspirasi": 3821,
      "▁lalu,": 3822,
      "▁kaget": 3823,
      "▁*Mengangguk*": 3824,
      "▁soal-soal": 3825,
      "▁membangunkanku": 3826,
      "▁Udara": 3827,
      "▁Untuk": 3828,
      "▁situlah": 3829,
      "▁bukunya.": 3830,
      "▁kamera,": 3831,
      "▁kenangan.": 3832,
      "▁ditunjuk": 3833,
      "▁diterima": 3834,
      "▁diterim": 3835,
      "▁planet": 3836,
      "▁padaku.": 3837,
      "▁posisi": 3838,
      "▁langkah-l": 3839,
      "▁keluar.": 3840,
      "▁coaster": 3841,
      "▁dipelajari": 3842,
      "▁*membalas": 3843,
      "▁perbedaan.": 3844,
      "▁lapangan": 3845,
      "▁lapar,": 3846,
      "▁apa-apa,": 3847,
      "▁rencanakan.": 3848,
      "▁rencanakan?": 3849,
      "▁tersendiri,": 3850,
      "▁tersebut.": 3851,
      "▁maaf!": 3852,
      "▁kreatif.": 3853,
      "▁terjadi,": 3854,
      "▁jadwalnya.": 3855,
      "▁diperlukan": 3856,
      "▁pendaftaran,": 3857,
      "▁buruk.": 3858,
      "▁basket.": 3859,
      "▁onigiri": 3860,
      "▁anggap": 3861,
      "▁mengand": 3862,
      "▁menganalis": 3863,
      "▁tangan,": 3864,
      "▁tampak": 3865,
      "▁sebaiknya": 3866,
      "▁menit.": 3867,
      "▁beradaptasi.": 3868,
      "▁berarti.": 3869,
      "▁memuaskan!": 3870,
      "▁caramu": 3871,
      "▁caranya": 3872,
      "▁refleksi": 3873,
      "▁Senin": 3874,
      "▁Sebagai": 3875,
      "▁Sama-sama": 3876,
      "▁ngerasain": 3877,
      "▁menyesal*": 3878,
      "▁grat": 3879,
      "▁air.": 3880,
      "▁cerah.": 3881,
      "▁pemrograman.": 3882,
      "▁rencanamu": 3883,
      "▁rencananya": 3884,
      "▁rencanamu.": 3885,
      "▁malu,": 3886,
      "▁menemanimu": 3887,
      "▁*Senyum*": 3888,
      "▁praktis": 3889,
      "▁jawaban": 3890,
      "▁energi*": 3891,
      "▁angkuh,": 3892,
      "▁kunci": 3893,
      "▁dengerin": 3894,
      "▁pusing": 3895,
      "▁pusing.": 3896,
      "asaran*": 3897,
      "▁nikmati.": 3898,
      "▁berenang.": 3899,
      "umpul": 3900,
      "▁memecahkan": 3901,
      "▁TV,": 3902,
      "▁Tempatnya": 3903,
      "▁merenung.": 3904,
      "▁Maafkan": 3905,
      "orial": 3906,
      "▁gunakan": 3907,
      "▁waktumu": 3908,
      "▁sebenarnya": 3909,
      "▁pasta-nya": 3910,
      "▁*Tertarik*": 3911,
      "▁visualnya": 3912,
      "▁tinggi.": 3913,
      "▁Filmnya": 3914,
      "▁misteri.": 3915,
      "▁detail.": 3916,
      "▁pegunungan": 3917,
      "▁kekalahan": 3918,
      "▁kekalahan,": 3919,
      "▁kesepian.": 3920,
      "▁kesepian?": 3921,
      "▁umum.": 3922,
      "▁dahulu.": 3923,
      "▁bugar": 3924,
      "▁bugar.": 3925,
      "▁budaya": 3926,
      "▁budaya.": 3927,
      "▁tegas": 3928,
      "▁tegas*": 3929,
      "▁nostalgia*": 3930,
      "▁berani!": 3931,
      "umbuhkan": 3932,
      "▁lelah.": 3933,
      "▁habis.": 3934,
      "▁memuji": 3935,
      "▁coding": 3936,
      "▁terpenting,": 3937,
      "▁membahasnya": 3938,
      "▁ramai": 3939,
      "▁Sayang": 3940,
      "▁Sains": 3941,
      "▁Sudahkah": 3942,
      "utar-putar": 3943,
      "▁Matematika": 3944,
      "▁atap.": 3945,
      "▁*bercanda*": 3946,
      "▁*menghibur*": 3947,
      "▁melewati": 3948,
      "▁melewatkan": 3949,
      "▁mendalam*": 3950,
      "▁kerjakan.": 3951,
      "▁Teruskan": 3952,
      "▁bahan-bahan": 3953,
      "▁terus-terus": 3954,
      "▁terus-terusan": 3955,
      "▁*Menatapmu": 3956,
      "▁segan-segan": 3957,
      "▁selesai.": 3958,
      "▁kelihatan": 3959,
      "▁kepuasan": 3960,
      "▁kepuasan*": 3961,
      "▁kehangatan": 3962,
      "▁kehangatan*": 3963,
      "▁terkejut.": 3964,
      "▁grafis": 3965,
      "▁grafis.": 3966,
      "▁Viralina": 3967,
      "▁sombong*": 3968,
      "▁jendela*": 3969,
      "▁kegembiraan*": 3970,
      "▁bakat": 3971,
      "▁meja": 3972,
      "▁mahir": 3973,
      "▁maksimal.": 3974,
      "▁tebing.": 3975,
      "▁tambahan.": 3976,
      "▁parkir": 3977,
      "▁petunjuk.": 3978,
      "untungan": 3979,
      "▁aktif.": 3980,
      "▁secangkir": 3981,
      "▁janji": 3982,
      "▁bernapas": 3983,
      "turut": 3984,
      "▁hiking": 3985,
      "tidur": 3986,
      "timis*": 3987,
      "▁Kemarin": 3988,
      "▁Keren!": 3989,
      "▁bayangkan.": 3990,
      "▁merinding.": 3991,
      "▁Menyusun": 3992,
      "▁Makanan": 3993,
      "▁ngantuk.": 3994,
      "▁mengajari": 3995,
      "▁fantasi.": 3996,
      "▁sampai.": 3997,
      "▁gitar": 3998,
      "▁galak": 3999,
      "▁gelap.": 4000,
      "▁bersaing": 4001,
      "omunikasi": 4002,
      "▁bebas.": 4003,
      "▁bicarakan": 4004,
      "▁Latihan": 4005,
      "▁keseimbangan.": 4006,
      "▁Ingat,": 4007,
      "▁pribadi": 4008,
      "▁presentasi.": 4009,
      "▁*membaca": 4010,
      "▁lewat": 4011,
      "▁lezat.": 4012,
      "▁arti*": 4013,
      "▁online": 4014,
      "▁nikmatin": 4015,
      "▁internasi": 4016,
      "▁programmer,": 4017,
      "▁menunggumu": 4018,
      "▁perpustakaan": 4019,
      "▁berkontribusi": 4020,
      "▁ekstrakurikuler.": 4021,
      "-warna": 4022,
      "nterstel": 4023,
      "uvenir": 4024,
      "▁optimis*": 4025,
      "▁over": 4026,
      "▁impian.": 4027,
      "▁outdoor": 4028,
      "▁sengg": 4029,
      "▁snack": 4030,
      "▁simbol": 4031,
      "▁bidang": 4032,
      "▁board": 4033,
      "▁mundur": 4034,
      "▁koleksi": 4035,
      "▁kincir": 4036,
      "akmu*": 4037,
      "▁dikunjungi": 4038,
      "▁debat": 4039,
      "▁dingin.": 4040,
      "▁dampak": 4041,
      "intip": 4042,
      "▁tengah,": 4043,
      "▁tiket": 4044,
      "▁tetapi": 4045,
      "▁tutorial": 4046,
      "▁pameran": 4047,
      "▁putih": 4048,
      "▁porsinya": 4049,
      "▁pundakmu*": 4050,
      "▁payung": 4051,
      "▁*penasaran*": 4052,
      "▁akadem": 4053,
      "▁seberapa": 4054,
      "▁menikmat": 4055,
      "▁menumpuk.": 4056,
      "▁nilai": 4057,
      "▁bertukar": 4058,
      "▁beristirahat": 4059,
      "▁berhati-hati.": 4060,
      "▁berusaha.": 4061,
      "▁bercanda.": 4062,
      "▁lukisan": 4063,
      "▁hancur": 4064,
      "▁memainkan": 4065,
      "▁kepikiran": 4066,
      "▁kejutan": 4067,
      "▁capai.": 4068,
      "▁cokl": 4069,
      "▁Kira-k": 4070,
      "▁terbawa": 4071,
      "▁terlibat": 4072,
      "▁terbaru.": 4073,
      "▁tertutup*": 4074,
      "▁membantuku": 4075,
      "▁rindu": 4076,
      "▁Sip,": 4077,
      "▁Baru-baru": 4078,
      "▁ngambek": 4079,
      "▁ngingetin": 4080,
      "▁mengangguk*": 4081,
      "▁sekeliling*": 4082,
      "▁*mencibir*": 4083,
      "▁menyembunyikan": 4084,
      "organis": 4085,
      "▁sia-sia.": 4086,
      "▁gedung": 4087,
      "▁geometr": 4088,
      "▁wajahnya*": 4089,
      "▁bersepeda": 4090,
      "▁*berharap*": 4091,
      "▁Otakku": 4092,
      "▁*mengeluarkan": 4093,
      "▁*mengeluh*": 4094,
      "▁melodi": 4095,
      "▁melepaskan": 4096,
      "▁Liburan": 4097,
      "▁Bayangin": 4098,
      "▁menjengkelkan*": 4099,
      "▁Panasnya": 4100,
      "▁berbicara.": 4101,
      "▁keseruan.": 4102,
      "▁Yup,": 4103,
      "▁coba-coba": 4104,
      "▁*terpukau*": 4105,
      "▁sering-ser": 4106,
      "▁satu-satunya": 4107,
      "▁terus-menerus": 4108,
      "▁Namun,": 4109,
      "▁cerita-cerita": 4110,
      "▁tersinggung*": 4111,
      "▁malas-malasan,": 4112,
      "▁duduk-duduk": 4113,
      "▁berlebihan.": 4114,
      "▁siapa-siapa": 4115,
      "▁*menggoda*": 4116,
      "▁bertahun-tahun": 4117,
      "▁diterima.": 4118,
      "▁langkah-langkah": 4119,
      "▁Sama-sama!": 4120,
      "nterstell": 4121
    },
    "merges": [
      "a n",
      "e n",
      "e r",
      "▁ s",
      "▁ b",
      "▁ m",
      "an g",
      "▁ k",
      "a k",
      "a r",
      "a t",
      "▁ d",
      "i n",
      "l a",
      "▁ t",
      "e m",
      "i t",
      "▁ p",
      "a m",
      "▁ *",
      "a s",
      "en g",
      "u n",
      "u k",
      "i k",
      "a p",
      "▁ ak",
      "▁ A",
      "y a",
      "▁s e",
      "a h",
      "a d",
      "i s",
      "k u",
      "it a",
      "▁ y",
      "eng an",
      "▁m en",
      "▁y ang",
      "▁ak u",
      "▁k ita",
      "▁ j",
      "▁A ku",
      "▁ n",
      "a l",
      "am u",
      "▁b er",
      "u m",
      "t u",
      "g a",
      "▁ l",
      "▁ h",
      "k an",
      "i h",
      "▁m em",
      "a la",
      "▁k e",
      "is a",
      "▁b isa",
      "i r",
      "▁k amu",
      "▁d an",
      "▁ in",
      "▁ c",
      "ad a",
      "u s",
      "an a",
      "i l",
      "ar i",
      "▁d engan",
      "▁d i",
      "t i",
      "t uk",
      "er s",
      "g i",
      "en y",
      "▁ un",
      "▁un tuk",
      "▁ T",
      "e b",
      "eny um",
      "▁ K",
      "ang at",
      "▁t er",
      "▁in i",
      "▁* m",
      "un g",
      "e la",
      "i d",
      "▁mem b",
      "e l",
      "▁* t",
      "ang an",
      "ap i",
      "▁ r",
      "▁b a",
      "ers enyum",
      "e k",
      "l u",
      "in g",
      "i m",
      "as a",
      "n ya",
      "it u",
      "▁*t ersenyum",
      "▁ S",
      "e s",
      "u r",
      "▁ak an",
      "ap a",
      "an ya",
      "u d",
      "▁s em",
      "d engan",
      "▁* dengan",
      "u ga",
      "▁p er",
      "▁j uga",
      "▁p en",
      "ala u",
      "b a",
      "u at",
      "▁n ada",
      "e t",
      "a u",
      "▁b ar",
      "u t",
      "▁l eb",
      "▁ H",
      "en ang",
      "▁m er",
      "p a",
      "h ,",
      "▁leb ih",
      "▁ B",
      "▁ itu",
      "ak an",
      "▁t id",
      "ad i",
      "p at",
      "a j",
      "ud ah",
      "l i",
      "o n",
      "an t",
      "an tu",
      "▁ M",
      "▁bar u",
      "▁T api",
      "i .",
      "▁ la",
      "▁k alau",
      "m u",
      "▁ E",
      "▁ ada",
      "▁n g",
      "ik ir",
      "li ana",
      "▁E liana",
      "▁m eng",
      "▁ I",
      "u h",
      "a .",
      "▁ f",
      "g ak",
      "▁se k",
      "ung k",
      "ungk in",
      "ar a",
      "un j",
      "▁*m en",
      "en t",
      "▁men y",
      "an .",
      "uk a",
      "▁s am",
      "▁h ari",
      "▁tid ak",
      "p er",
      "▁t em",
      "s i",
      "▁h ar",
      "la h",
      "unj uk",
      "b er",
      "o r",
      "▁s angat",
      "la lu",
      "unjuk kan",
      "▁s i",
      "▁H m",
      "ik an",
      "▁ g",
      "▁s uka",
      "ala h",
      "ela j",
      "▁s er",
      "u la",
      "▁ at",
      "▁mer asa",
      "a ga",
      "y ak",
      "▁ w",
      "angat *",
      "▁Eliana ,",
      "ala m",
      "o ba",
      "ih at",
      "▁s udah",
      "▁ber s",
      "im ana",
      "▁ng gak",
      "elaj ar",
      "▁ a",
      "al an",
      "▁c er",
      "▁b ang",
      "▁se per",
      "▁j angan",
      "an *",
      "▁men c",
      "▁*tersenyum *",
      "▁ ya",
      "▁* ber",
      "▁*men unjukkan",
      "▁t ent",
      "▁in g",
      "▁pen uh",
      "▁tent ang",
      "aj a",
      "▁har us",
      "e p",
      "▁ O",
      "uk an",
      "d a",
      "o lah",
      "▁at au",
      "▁ J",
      "▁se d",
      "as ih",
      "uk u",
      "r o",
      "y o",
      "▁seper ti",
      "enang kan",
      "▁ba ik",
      "▁d ari",
      "a i",
      "u l",
      "w a",
      "▁j adi",
      "▁*m eng",
      "▁si ap",
      "o k",
      "▁l u",
      "en ar",
      "ik it",
      "o m",
      "▁ apa",
      "at i",
      "ad ang",
      "▁ing in",
      "i a",
      "▁K amu",
      "p ikir",
      "▁t api",
      "em b",
      "▁ini .",
      "▁memb uat",
      "▁w ak",
      "▁m akan",
      "▁m ungkin",
      "un ya",
      "▁m el",
      "as anya",
      "b il",
      "an yak",
      "a gi",
      "▁se b",
      "▁K ita",
      "▁meny enangkan",
      "as i",
      "▁wak tu",
      "o b",
      "en d",
      "▁sem angat*",
      "▁sed ikit",
      "▁ D",
      "▁b anyak",
      "ar ik",
      "c a",
      "am a",
      "ah u",
      "ela h",
      "en tu",
      "▁s in",
      "▁s aja",
      "ula i",
      "g us",
      "▁b eb",
      "▁A yo",
      "▁memb antu",
      "el um",
      "j u",
      "▁m au",
      "as *",
      "▁* D",
      "il m",
      "p h,",
      "er apa",
      "▁b uat",
      "▁b uku",
      "▁p as",
      "▁ke c",
      "▁tem pat",
      "▁Hm ph,",
      "▁*D engan",
      "e g",
      "t a",
      "u a",
      "▁b i",
      "▁ter lalu",
      "▁beb erapa",
      "m a",
      "ir i",
      "antu si",
      "▁I tu",
      "▁b elajar",
      "ang g",
      "at an",
      "id e",
      "▁bang et",
      "▁p unya",
      "▁t ahu",
      "ya ,",
      "al i",
      "eng ar",
      "an d",
      "▁k asih",
      "▁h al",
      "▁f ilm",
      "▁kec il",
      "u tu",
      "e pat",
      "▁m ulai",
      "ak ukan",
      "i p",
      "j alan",
      "en ak",
      "am an",
      "ik a",
      "▁menc oba",
      "c ara",
      "o l",
      "▁A pa",
      "▁M ungkin",
      "▁J angan",
      "e d",
      "h ar",
      "en c",
      "▁men d",
      "im a",
      "pa i",
      "- b",
      "g u",
      "▁ L",
      "▁ ide",
      "nya .",
      "▁B a",
      "▁B aga",
      "ant ai",
      "▁sek olah",
      "▁tem an",
      "▁Baga imana",
      "at a",
      "▁men j",
      "▁T entu",
      "▁ba gus",
      "▁ser u",
      "an ti",
      "▁s a",
      "▁p eng",
      "▁se t",
      "et ap",
      "m ,",
      "on t",
      "▁ P",
      "an j",
      "▁k er",
      "▁d alam",
      "▁p ro",
      "ik in",
      "▁A da",
      "is t",
      "▁c ara",
      "▁I ya,",
      "▁sam bil",
      "angg uk",
      "▁b ikin",
      "it as",
      "▁se lalu",
      "ah a",
      "▁Hm m,",
      "▁ antusi",
      "ar ang",
      "▁men arik",
      "tu ju",
      "▁la in",
      "la s",
      "ah ,",
      "▁T er",
      "lu b",
      "▁cer ia",
      "▁set elah",
      "▁t etap",
      "▁ber b",
      "▁ke las",
      "▁s enang",
      "▁se j",
      "▁se s",
      "▁ke s",
      "▁S e",
      "e ,",
      "▁ R",
      "▁ W",
      "▁ Y",
      "▁k h",
      "in ya",
      "am p",
      "ti v",
      "▁K alau",
      "▁la gi",
      "▁O h,",
      ". .",
      "▁m as",
      "▁k a",
      "▁t u",
      "un d",
      "ga imana",
      "▁h anya",
      "▁ini ?",
      "▁ba gaimana",
      "▁S em",
      "▁g am",
      "ont on",
      "o ga",
      "r aga",
      "t ing",
      "u *",
      "ang k",
      "at .",
      "▁p em",
      "ik m",
      "▁n anti",
      "▁per gi",
      "uat u",
      "or ang",
      "▁D an",
      "▁ceria *",
      "▁b enar",
      "ak ah",
      "ik ap",
      "is *",
      "▁ber pikir",
      "▁mem ang",
      "▁c epat",
      "▁memb a",
      "▁tid ur",
      "▁Tapi ,",
      "mu .",
      "▁pas ti",
      "t r",
      "▁s ana",
      "▁s ikap",
      "▁b ah",
      "▁b es",
      "▁b eg",
      "▁p ikir",
      "▁ya .",
      "olah raga",
      "▁*meng angguk",
      "utu h",
      "e *",
      "▁m in",
      "ar an",
      "ku s",
      "▁c oba",
      "▁f o",
      "▁lu ar",
      "▁seb elum",
      "▁gam e",
      "- k",
      "▁ C",
      "la h,",
      "▁p elajar",
      "▁beg itu",
      "a w",
      "▁ udah",
      "ak in",
      "at ih",
      "▁j ika",
      "al ing",
      "▁l ihat",
      "▁memb er",
      "▁r asa",
      "▁r enc",
      "▁sam a",
      "▁Ba ik",
      "i b",
      "▁ olahraga",
      "▁s at",
      "▁s end",
      "▁k lub",
      "ek s",
      "▁O k",
      "▁b utuh",
      "ak al",
      "as il",
      "▁n y",
      "ut *",
      "ikm ati",
      "o p",
      "s und",
      "▁d iri",
      "em pat",
      "▁p ada",
      "uk ung",
      "▁*t er",
      "▁sem ua",
      "ba ik",
      "▁itu .",
      "▁ser ing",
      "▁baik .",
      "▁menyenangkan .",
      "▁L agi",
      "▁ses uatu",
      "▁sat u",
      "sund er",
      "- h",
      "t er",
      "▁t sunder",
      "ala s",
      "ir i.",
      "il ang",
      "▁K adang",
      "▁sem angat",
      "▁pen ting",
      "▁sam pai",
      "ula ,",
      "▁menj adi",
      "▁R asanya",
      "h ir",
      "u as",
      "▁ ad",
      "▁pen as",
      "aj a.",
      "▁bers ama",
      "▁makan an",
      "▁Sem oga",
      "▁pelajar an",
      "▁Ok e,",
      "p ula,",
      "t ikan",
      "▁ orang",
      "▁b akal",
      "▁m at",
      "▁m al",
      "▁t ek",
      "ah am",
      "▁kita .",
      "▁ber ba",
      "ga i",
      "▁mel ihat",
      "-b enar",
      "▁Ter ima",
      "▁benar -benar",
      "▁Lagi pula,",
      "b is",
      "e h",
      "y ek",
      "▁d ep",
      "▁A p",
      "▁S ela",
      "▁sek arang",
      "▁antusi as*",
      "▁Baik lah,",
      "an ,",
      "an ?",
      "▁s en",
      "▁b antu",
      "em angat*",
      "▁y akin",
      "um a",
      "▁sek ali",
      "▁*ber pikir",
      "▁lu pa",
      "om p",
      "ma in",
      "▁sej enak",
      "▁fo kus",
      "aw at",
      "a ,",
      "a f",
      "d ah",
      "n ah",
      "t anya",
      "▁s enyum",
      "ar *",
      "at kan",
      "▁p agi",
      "am b",
      "▁j alan",
      "▁ber har",
      "▁ke gi",
      "ir ah",
      "▁ter us",
      "▁r um",
      "es a",
      "▁per nah",
      "▁har ap",
      "ta wa",
      "▁W ah,",
      "awat ir",
      "▁ enak",
      "▁b ilang",
      "▁* s",
      "▁l emb",
      "▁c uma",
      "gi an",
      "ela s",
      "▁mel akukan",
      "▁pro yek",
      "ist irah",
      "▁Se tuju",
      "▁kh awatir",
      "▁ad alah",
      "▁tek n",
      "▁Ap akah",
      "- s",
      "i us",
      "i cara",
      "u ang",
      "u lu",
      "u anya",
      "▁b elum",
      "ar kan",
      "am bil",
      "▁* M",
      "▁se g",
      "ah *",
      "▁la ma",
      "▁I n",
      "▁a gak",
      "▁sin i.",
      "▁tsunder e*",
      "▁rum ah",
      "b ers",
      "g as",
      "i ap",
      "j a",
      "▁ aja",
      "▁ istirah",
      "▁m asih",
      "▁k ar",
      "ar .",
      "▁d ukung",
      "▁d ulu",
      "▁p antai",
      "▁men ang",
      "▁men em",
      "▁mem as",
      "es ep",
      "▁baru .",
      "▁bi asa",
      "anj ang",
      "▁bes ok",
      "-k adang",
      "ib ur",
      "b ung",
      "▁ N",
      "▁ i",
      "am a.",
      "▁* bers",
      "ik u",
      "▁n onton",
      "il ih",
      "ti ap",
      "▁juga .",
      "▁cer ita",
      "▁ya ?",
      "ro l",
      "▁Ayo ,",
      "▁sa at",
      "▁tu gas",
      "▁sana .",
      "▁renc ana",
      "▁*ter tawa",
      "▁mal u*",
      "o s",
      "en er",
      "▁s aja.",
      "▁k em",
      "▁t ers",
      "▁t aman",
      "ik ut",
      "▁se l",
      "▁di a",
      "ek a",
      "▁sem uanya",
      "▁per lu",
      "or it",
      "▁ser ius",
      "▁bang un",
      "ob alah",
      "ob rol",
      "▁mend engar",
      "-h al",
      "▁berba gi",
      "▁sejenak *",
      "▁berhar ap",
      "▁kegi atan",
      "▁In i",
      "▁dukung an*",
      "- t",
      "a v",
      "h ati",
      "i *",
      "o gi",
      "▁s aling",
      "▁d at",
      "▁t ak",
      "▁men ant",
      "▁h asil",
      "▁ke l",
      "▁r esep",
      "▁ba gian",
      "on g",
      "▁ng obrol",
      "▁meng h",
      "▁f av",
      "ul ang",
      "▁sin is*",
      "▁hal -hal",
      "ol ogi",
      "▁sekolah .",
      "▁peng en",
      "▁berb icara",
      "▁Y a,",
      "▁memba ca",
      "▁*bers emangat*",
      "▁fav orit",
      "i an",
      "u .",
      "▁ ap",
      "en a",
      "▁m asa",
      "▁m alam",
      "at ap",
      "am pai",
      "▁ber jalan",
      "▁l akukan",
      "kan .",
      "▁r asanya",
      "ek at",
      "▁S ampai",
      "es k",
      "ur ut",
      "ud uk",
      "ant in",
      "tiv itas",
      "▁dep an",
      "▁tekn ologi",
      "▁istirah at",
      "m b",
      "t inya",
      "▁ eks",
      "an as",
      "an akan",
      "▁s ih",
      "▁m udah",
      "▁m alas",
      "▁k alah",
      "▁k antin",
      "▁t enang",
      "▁men ikmati",
      "al .",
      "▁l atih",
      "▁kamu .",
      "us ik",
      "▁ter baik",
      "▁r uang",
      "▁per hati",
      "▁bar eng",
      "▁bers ama.",
      "▁a c",
      "ul is",
      "▁sin i",
      "▁saja !",
      "and angan",
      "▁kecil *",
      ".. .",
      "▁member ikan",
      "▁send iri",
      "k ata",
      "o t",
      "u p",
      "▁s tr",
      "▁d uduk",
      "▁t ip",
      "▁* S",
      "▁se tuju",
      "▁ber l",
      "▁ber main",
      "us aha",
      "▁ter l",
      "▁ter t",
      "▁H ari",
      "ant angan",
      "▁Eliana .",
      "▁*ber tanya",
      "▁*ber kata",
      "uku p",
      "ul it",
      "ip un",
      "amp ir",
      "▁ka yak",
      "▁C obalah",
      "▁Kadang -kadang",
      "▁sen i",
      "▁*s enyum",
      "▁lemb ut*",
      "▁dat ang",
      "esk ipun",
      "▁ac uh",
      "a i.",
      "o d",
      "an nya",
      "▁s alah",
      "▁m ata",
      "▁k ali",
      "▁t antangan",
      "▁p ulang",
      "▁ak hir",
      "▁se tiap",
      "▁ber k",
      "▁mem aham",
      "▁c ukup",
      "el esa",
      "▁per ca",
      "▁M en",
      "▁a yo",
      "▁menc ari",
      "▁J adi",
      "▁membantu .",
      "▁banget .",
      "▁penas aran",
      "iap kan",
      "▁latih an",
      "▁perca ya",
      "e da",
      "f a",
      "m at",
      "o tiv",
      "s ung",
      "▁ ikut",
      "er i",
      "er ja",
      "▁b ek",
      "▁m a",
      "ang sung",
      "ar ah",
      "▁p e",
      "▁* T",
      "ap at",
      "ah an",
      "ku .",
      "▁men unjukkan",
      "▁c em",
      "es i",
      "▁itu ,",
      "ant ai.",
      "▁ya !",
      "▁*ber bis",
      "▁ker en",
      "▁antusi as",
      "▁mas uk",
      "▁pem andangan",
      "▁min at",
      "▁khawatir ,",
      "▁kar ena",
      "iku ti",
      "elesa ikan",
      "▁*berbis ik",
      "b ar",
      "b uh",
      "g un",
      "y ang",
      "an fa",
      "en angan",
      "er ti",
      "▁m ikir",
      "▁k an?",
      "▁* antusi",
      "▁ak tivitas",
      "ya .",
      "▁se h",
      "ad api",
      "is ku",
      "▁ber usaha",
      "▁l angsung",
      "▁ke p",
      "us us",
      "ek om",
      "ur u",
      "▁M ari",
      "▁meny elesaikan",
      "▁siap .",
      "▁bi asanya",
      "▁bagus !",
      "▁ker as",
      "▁kelas .",
      "▁kh usus",
      "▁nanti .",
      "▁*mengangguk *",
      "uas ana",
      "▁menem ukan",
      "▁*antusi as*",
      "isku si",
      "ekom end",
      "a gu",
      "n a",
      "▁s uasana",
      "▁k adang",
      "la mb",
      "▁t el",
      "▁p r",
      "▁p anjang",
      "▁se p",
      "▁j um",
      "▁n ap",
      "um u",
      "ga *",
      "▁l ibur",
      "▁mem p",
      "▁in dah",
      "ti f",
      "▁ter lamb",
      "▁*m em",
      "▁*m el",
      "▁ba wa",
      "im u",
      "▁H aha",
      "▁seb ent",
      "ua ca",
      "jalan an",
      "anj ut",
      "▁send iri.",
      "▁ny aman",
      "▁Sela mat",
      "▁Setuju !",
      "▁menant ang",
      "▁perhati an*",
      "▁tip s",
      "▁*senyum *",
      "▁Jadi ,",
      "otiv asi",
      "▁jum pa",
      "▁Haha ,",
      "- jalan",
      "e f",
      "g r",
      "s es",
      "an c",
      "▁s p",
      "▁m ari",
      "▁m usik",
      "ak t",
      "ak u",
      "em angat",
      "ap an",
      "▁men u",
      "▁j au",
      "▁ber ga",
      "▁ter d",
      "▁ini ,",
      "▁r ut",
      "im p",
      "nya ,",
      "▁per jalanan",
      "▁Eliana ?",
      "▁meng ikuti",
      "si ap",
      "ber ut*",
      "▁si apa",
      "▁a cara",
      "ob i",
      "▁Ba gus",
      "▁P as",
      "▁menarik .",
      "▁begitu .",
      "▁penting .",
      "▁sekarang .",
      "▁*M eng",
      "urut mu",
      "▁cem berut*",
      "▁antusias m",
      "- c",
      "e gi",
      "h ela",
      "o ta",
      "▁ v",
      "en apa",
      "▁m an",
      "▁m ur",
      "▁m eskipun",
      "▁d iri.",
      "in .",
      "▁t ur",
      "▁l e",
      "▁dengan mu",
      "id up",
      "es ai",
      "▁per t",
      "▁juga ,",
      "▁meng har",
      "▁*men atap",
      "▁at as",
      "▁cer ah*",
      "om en",
      "▁menyenangkan !",
      "▁kes empat",
      "▁ka f",
      "▁berpikir *",
      "▁penas ar",
      "▁sekali !",
      "▁besok .",
      "▁sel esai",
      "▁berl atih",
      "▁tert arik",
      "▁berga bung",
      "a y",
      "i c",
      "n y",
      "o h",
      "o v",
      "u j",
      "u li",
      "w al",
      "▁ ok",
      "▁s u",
      "▁b el",
      "▁k r",
      "at !",
      "at egi",
      "▁d un",
      "in s",
      "▁t ersenyum",
      "▁p ers",
      "▁p aling",
      "▁p ilih",
      "as i.",
      "is i",
      "▁l anjut",
      "▁h obi",
      "▁ke h",
      "ir ik",
      "▁T adi",
      "▁K ed",
      "▁ter k",
      "▁*m eny",
      "ung gu",
      "ing .",
      "asa an",
      "▁pen d",
      "ut ama",
      "▁leb ar*",
      "▁mer aj",
      "▁mer enc",
      "ikir kan",
      "▁g itu",
      "▁seper tinya",
      "and ang",
      "ed uli",
      "▁sa bar",
      "aha b",
      "▁tu ju",
      "▁mat eri",
      "omp ok",
      "▁memas ak",
      "▁kel ompok",
      "▁str ategi",
      "▁memaham i",
      "▁antusiasm e*",
      "▁dun ia",
      "▁merenc anakan",
      "a *",
      "a bis",
      "e c",
      "k ep",
      "t ar",
      "t is*",
      "u an",
      "w ,",
      "▁s o",
      "▁s antai",
      "▁s ulit",
      "▁s kep",
      "▁b ukan",
      "ang un",
      "▁k omp",
      "at ,",
      "▁d engar",
      "in dah",
      "▁p anas",
      "uk *",
      "▁A I",
      "▁men enangkan",
      "al i.",
      "al an.",
      "▁ber m",
      "▁mem ikirkan",
      "▁ke t",
      "▁c uaca",
      "il ik",
      "▁ter b",
      "▁r ekomend",
      "▁r agu",
      "▁ba ca",
      "im b",
      "▁S et",
      "▁sem pat",
      "▁mer eka",
      "▁B i",
      "▁itu ?",
      "▁meng g",
      "lah .",
      "▁si ang",
      "▁g uru",
      "▁sed ang",
      "▁teman -t",
      "▁pro ses",
      "▁lain .",
      "▁member i",
      "▁bantu an",
      "▁jalan -jalan",
      "▁aja ,",
      "▁memas tikan",
      "▁i ya.",
      "▁tak ut",
      "▁mengh adapi",
      "▁ap akah",
      "▁*berbisik *",
      "▁sebent ar",
      "▁jau h",
      "▁mur id",
      "▁kaf e",
      "▁ok e",
      "▁meraj uk*",
      "▁tuju an",
      "▁skep tis*",
      "▁Set elah",
      "▁teman-t em",
      "- m",
      "m a.",
      "p r",
      "t o",
      "u b",
      "▁ alam",
      "▁s ar",
      "▁m ana",
      "▁k ur",
      "▁k ok",
      "▁d ir",
      "▁d ekat",
      "in ar*",
      "▁t r",
      "▁t ing",
      "▁t adi",
      "▁p eduli",
      "am an.",
      "▁men onton",
      "▁men ulis",
      "▁j elas",
      "▁n ikmati",
      "▁ber d",
      "▁mem ulai",
      "▁mem ilih",
      "ir a",
      "▁c at",
      "▁c emb",
      "▁ter ima",
      "ing in",
      "▁juga !",
      "▁M em",
      "elaj ari",
      "▁bers antai",
      "▁nggak ?",
      "▁cer it",
      "▁bang ga*",
      "▁*meng g",
      "▁membuat ku",
      "▁waktu .",
      "▁pas tikan",
      "▁kasih .",
      "utu s",
      "ol eh",
      "▁seru .",
      "▁berb inar*",
      "▁lagi .",
      "▁mas alah",
      "angk at",
      "▁tidur .",
      "▁bah wa",
      "▁begitu ,",
      "▁Setuju .",
      "▁N g",
      "▁i ya,",
      "▁mendengar kan",
      "▁bek erja",
      "gun akan",
      "▁sp esi",
      "▁terd engar",
      "▁rut in",
      "▁man us",
      "▁menghar gai",
      "▁kesempat an",
      "ilik i",
      "▁rekomend asi",
      "g ar",
      "o w,",
      "u bung",
      "▁ G",
      "▁ em",
      "▁ al",
      "▁ empat",
      "an da",
      "er a",
      "▁s uk",
      "▁s aran",
      "▁m ar",
      "▁m ampir",
      "▁m omen",
      "▁k ak",
      "▁k ota",
      "ak s",
      "ar na",
      "▁t an",
      "▁t im",
      "▁t op",
      "em at",
      "un gi",
      "uk an.",
      "▁se la",
      "is .",
      "▁men urutmu",
      "▁j a",
      "▁n a",
      "al angan",
      "tu alangan",
      "▁h idup",
      "▁mem iliki",
      "▁ke b",
      "▁ke indah",
      "▁c ari",
      "▁ter j",
      "▁ba w",
      "ek arang",
      "ing an",
      "nya !",
      "▁S ekarang",
      "▁per main",
      "▁per asaan",
      "▁M er",
      "▁la ma.",
      "▁sek it",
      "▁*men d",
      "or m",
      "▁bers emangat",
      "▁O h",
      "▁*meng hela",
      "▁membuat mu",
      "ol us",
      "ed ikit",
      "▁seru !",
      "▁peng alam",
      "▁W ow,",
      "angk ah",
      "▁fo to",
      "▁Sela in",
      "▁seg ar",
      "▁biasa !",
      "▁biasa .",
      "▁terl ihat",
      "▁Kadang-kadang ,",
      "▁acuh *",
      "▁ma in",
      "▁pe tualangan",
      "▁sep anjang",
      "▁penasar an*",
      "ny ata",
      "ahab atan",
      "▁rutin itas",
      "- p",
      "g alan",
      "i ,",
      "m ana",
      "u ah",
      "▁ F",
      "▁ ar",
      "▁ gi",
      "▁ aja.",
      "▁ ener",
      "▁ ef",
      "an i",
      "er in",
      "▁s ad",
      "▁s olus",
      "▁m ula",
      "▁d apat",
      "▁t entu",
      "▁p el",
      "▁p es",
      "ap atkan",
      "▁se cara",
      "ku ,",
      "▁aku ,",
      "▁j ad",
      "▁n ov",
      "▁ber h",
      "▁ber p",
      "▁ber t",
      "▁h eb",
      "▁h ampir",
      "▁mem per",
      "▁di per",
      "ers iapkan",
      "▁memb angun",
      "ek tif",
      "anya .",
      "▁pen da",
      "▁bar ang",
      "▁H ai",
      "▁B er",
      "▁la gu",
      "▁meng erti",
      "unj ungi",
      "▁ya ,",
      "emb ang",
      "▁banyak .",
      "▁banget ,",
      "engar annya",
      "▁mend apatkan",
      "▁menj aga",
      "▁Tentu ,",
      "▁sej arah",
      "inya .",
      "angk a",
      "▁bah kan",
      "▁bah agi",
      "▁bes ar",
      "▁min um",
      "▁bersama ,",
      "amb ah",
      "▁enak .",
      "▁serius *",
      "▁mudah .",
      "▁setuju *",
      "▁*T ersenyum",
      "▁minat *",
      "▁nap as*",
      "▁terlamb at.",
      "▁berm anfa",
      "▁oke ?",
      "▁teman-tem an",
      "▁Ng gak",
      "▁manus ia",
      "▁empat i*",
      "▁suk a.",
      "▁top ik",
      "▁na ik",
      "▁keindah an",
      "▁baw ah",
      "▁Mer eka",
      "▁pengalam an",
      "▁gi mana",
      "▁mula i.",
      "▁nov el",
      "▁penda f",
      "- siap",
      "b eda",
      "c anda",
      "e j",
      "g al",
      "l ihat",
      "o da",
      "t al",
      "u ek",
      "▁ as",
      "▁b us",
      "▁b ur",
      "▁b et",
      "▁b ener",
      "▁m ist",
      "▁k u",
      "▁k emb",
      "▁d ap",
      "▁d is",
      "▁d il",
      "▁d eh",
      "▁t onton",
      "em u",
      "▁p u",
      "as akan",
      "as ikan",
      "▁se ba",
      "ah as",
      "▁ber lalu",
      "tu l",
      "▁l anc",
      "▁h ati",
      "▁mem er",
      "▁ke d",
      "▁kamu ,",
      "▁in s",
      "▁c uek",
      "il an",
      "▁untuk mu.",
      "eb ih",
      "eb ut",
      "▁K enapa",
      "ung an",
      "ing ,",
      "ing k",
      "nya ?",
      "ur u*",
      "▁sem es",
      "▁sem buh",
      "on s",
      "▁la lu",
      "▁meng eks",
      "ent ara",
      "or e",
      "▁bers antai.",
      "▁a gar",
      "▁menc ob",
      "▁ing at",
      "▁J ika",
      "▁saja ,",
      "▁banget !",
      "▁tahu ,",
      "▁mend ukung",
      "▁sekolah ?",
      "▁bagus .",
      "▁kes ulit",
      "▁Se per",
      "amp uan",
      "▁lagi ,",
      "▁ka g",
      "▁memba wa",
      "▁diri *",
      "▁berba gai",
      "▁*berpikir *",
      "▁lupa ,",
      "▁lemb ut",
      "-s enang",
      "▁seg era",
      "▁dulu .",
      "▁N anti",
      "▁kem ampuan",
      "▁semuanya .",
      "▁eks tr",
      "▁terbaik .",
      "▁keren !",
      "▁seh at",
      "▁libur an",
      "▁*mem andang",
      "▁*mel irik",
      "akt ir",
      "▁*Meng angguk",
      "ay akan",
      "▁pend apat",
      "▁so al",
      "▁AI ,",
      "▁sar apan",
      "▁tr aktir",
      "▁cat atan",
      "▁cemb uru*",
      "▁G imana",
      "▁kak i",
      "▁tan pa",
      "▁permain an",
      "▁*mend ekat",
      "▁membangun kan",
      "▁bet apa",
      "▁kemb ali",
      "▁dap ur",
      "▁cuek *",
      "- d",
      "- apa",
      "a yak",
      "b uk",
      "c u",
      "c apa",
      "e w",
      "e ati",
      "e tul",
      "f orm",
      "i apa",
      "j elas",
      "k et",
      "o in",
      "o si",
      "p ir",
      "t au",
      "t aran",
      "▁ U",
      "▁ ant",
      "▁ ambil",
      "an !",
      "er it",
      "▁s itu",
      "▁s uatu",
      "▁b as",
      "▁b uk",
      "▁m otivasi",
      "▁k am",
      "▁k enangan",
      "▁k ons",
      "ak .",
      "ak hir",
      "ar in",
      "at i.",
      "▁d it",
      "▁d et",
      "▁d af",
      "▁d iskusi",
      "in d",
      "▁t ok",
      "▁p l",
      "▁p ad",
      "▁p eg",
      "▁p aham",
      "▁p os",
      "eng k",
      "un c",
      "uk ,",
      "ik s",
      "ik an.",
      "ap un",
      "▁A h,",
      "▁A tau",
      "ad ap",
      "is ,",
      "▁aku .",
      "▁j alan.",
      "amu .",
      "▁ber ter",
      "▁l angkah",
      "▁ke lu",
      "▁in form",
      "▁c o",
      "us ah",
      "▁di p",
      "▁T aman",
      "▁K ayak",
      "▁ter asa",
      "▁ter utama",
      "▁*m emb",
      "ing at",
      "ing ung",
      "▁S iapa",
      "apa i",
      "▁per beda",
      "▁pen capa",
      "et isi",
      "▁H ah,",
      "enang -senang",
      "pa ya",
      "aj ah",
      "▁la p",
      "▁meng at",
      "▁meny iapkan",
      "▁sam a.",
      "▁hari .",
      "▁si buk",
      "yak in",
      "▁w arna",
      "▁bers enang-senang",
      "wa b",
      "▁siap -siap",
      "om ong",
      "▁apa ?",
      "▁apa -apa",
      "▁membuat nya",
      "unya .",
      "▁seb uah",
      "▁bi ar",
      "▁belajar .",
      "utu p",
      "gu p",
      "▁Ter nyata",
      "▁mas akan",
      "▁benar .",
      "▁tidur ,",
      "▁min ta",
      "▁renc anakan",
      "asil itas",
      "▁ny aman.",
      "▁mat emat",
      "▁rumah .",
      "▁ters end",
      "▁ters ebut",
      "▁menant ikan",
      "▁tenang .",
      "▁str es",
      "▁*S ambil",
      "▁*S edikit",
      "▁setuju .",
      "▁ma af",
      "anfa atkan",
      "▁nap as",
      "▁memp ersiapkan",
      "▁*mel ihat",
      "▁Pas ti",
      "▁*menatap mu",
      "▁su paya",
      "▁bel i",
      "▁kr eati",
      "▁tersenyum *",
      "▁pers ahabatan",
      "▁Ked engarannya",
      "abis kan",
      "▁dir imu",
      "▁berd iskusi",
      "▁em osi",
      "▁mar ah*",
      "▁terj adi",
      "▁sekit ar",
      "▁pes an",
      "▁jad wal",
      "▁diper l",
      "▁pendaf taran",
      "▁bur uk",
      "▁pu as*",
      "▁seba gai",
      "▁berlalu .",
      "▁Seper tinya",
      "▁ant ara",
      "▁bas ket",
      "▁berter ima",
      "▁pencapa ian",
      "a ya",
      "a af",
      "e .",
      "e h,",
      "e wa",
      "g ant",
      "h ana",
      "k op",
      "k hir",
      "l or",
      "o la",
      "p ek",
      "p lor",
      "t asi",
      "u al",
      "u angan",
      "u gup",
      "▁ '",
      "▁ ud",
      "▁ on",
      "▁ angg",
      "▁ angk",
      "▁ uj",
      "▁ utama",
      "en ung",
      "er en",
      "er asa",
      "er hana",
      "▁s ore",
      "▁b ingung",
      "▁m engan",
      "ang .",
      "▁k ul",
      "▁k enapa",
      "▁k unjungi",
      "ak u.",
      "ar ,",
      "ar ti",
      "at anya",
      "at an.",
      "▁d ah",
      "in ta",
      "▁t angan",
      "▁t unjukkan",
      "▁t amp",
      "▁p uas",
      "▁p elajari",
      "▁A khir",
      "▁se ga",
      "▁se baik",
      "ah ari",
      "▁men it",
      "▁men unggu",
      "▁men ambah",
      "▁ber ikut",
      "▁ber gun",
      "▁ber adap",
      "▁ber arti",
      "▁l ari",
      "▁h angat*",
      "▁mem uas",
      "▁mem anfaatkan",
      "▁ke k",
      "▁ke ting",
      "▁ke siap",
      "▁ke yakin",
      "▁c ar",
      "us nya",
      "us tr",
      "▁K lub",
      "▁ter h",
      "▁ini !",
      "▁memb ant",
      "▁r ef",
      "▁r uangan",
      "ek erja",
      "▁S en",
      "▁S eb",
      "▁S ama",
      "▁sem oga",
      "▁pen ulis",
      "▁mer asakan",
      "▁mer ayakan",
      "akan .",
      "aj ak",
      "▁M usik",
      "▁M eskipun",
      "▁baru ,",
      "▁Tapi ...",
      "mu !",
      "▁ng erasa",
      "▁Eliana !",
      "▁meng aku",
      "▁f asilitas",
      "▁sek ali.",
      "▁meny es",
      "▁hari -h",
      "▁g r",
      "▁g ugup",
      "▁a ir",
      "▁cer ah",
      "▁sed erhana",
      "ro gr",
      "▁baik ,",
      "▁siap !",
      "▁siap in",
      "emb angan",
      "▁mungkin .",
      "▁D i",
      "▁D ia",
      "▁kec ewa",
      "▁tempat -t",
      "eg arkan",
      "▁Tentu !",
      "▁seru ,",
      "▁peng erti",
      "etap kan",
      "▁ker ja",
      "▁berb eda",
      "▁senang *",
      "▁kes ep",
      "▁Se tiap",
      "▁Y uk,",
      "▁pem anas",
      "▁pem rogr",
      "▁nanti ?",
      "tr uk",
      "▁bes ar.",
      "kus ikan",
      "▁C erit",
      "▁renc an",
      "▁mal u",
      "gai *",
      "eh atan",
      "▁senyum *",
      "amb ut",
      "▁kar ya",
      "▁dulu ,",
      "▁menem an",
      "▁*tertawa *",
      "os kop",
      "▁serius ,",
      "▁hasil nya",
      "urut ku,",
      "▁eks pr",
      "▁sih .",
      "▁sini ,",
      "▁*S enyum",
      "od e",
      "▁tantangan .",
      "▁berk embang",
      "▁Men urutku,",
      "▁bek al",
      "▁pe kan",
      "▁seh ari",
      "▁kadang -kadang",
      "▁pr akt",
      "▁menantang ,",
      "imp i",
      "▁Pas tikan",
      "▁pert ama",
      "oh on",
      "▁pilih an",
      "ec ah",
      "▁ket ika",
      "▁Bi asanya",
      "▁kur ang",
      "▁kok .",
      "▁spesi al",
      "▁sela ma",
      "▁ja wab",
      "▁Sekarang ,",
      "▁ener gi",
      "▁ef ektif",
      "erin gai*",
      "▁solus i*",
      "▁semes ter",
      "▁kag um",
      "pir asi",
      "▁daf tar",
      "▁tok o",
      "iks a",
      "▁ud ara",
      "▁angk asa",
      "▁sega la",
      "▁keting galan",
      "▁kesiap an*",
      "▁keyakin an*",
      "▁membant umu",
      "▁tempat-t empat",
      "▁ekspr esi",
      "- n",
      "- la",
      "- nya",
      "- pa",
      "- ide",
      "- orang",
      "- ter",
      "B er",
      "I Y",
      "a il",
      "c or",
      "c oba",
      "c ok",
      "d uk",
      "e orang",
      "f .",
      "h op",
      "i a.",
      "k s",
      "l in",
      "p ur",
      "p on",
      "t ak",
      "w ic",
      "▁ ang",
      "▁ um",
      "an tuk",
      "en al",
      "er .",
      "er u",
      "▁s um",
      "▁s and",
      "▁s antai.",
      "▁b at",
      "▁b al",
      "▁b imb",
      "▁m et",
      "ang kan",
      "▁k unc",
      "ar u",
      "▁d eng",
      "▁d ahu",
      "▁t epat",
      "▁t amb",
      "it kan",
      "▁p us",
      "▁p antai.",
      "▁p ekerja",
      "am .",
      "am un",
      "▁* Ber",
      "as an",
      "as ar",
      "un y",
      "ik si",
      "▁se har",
      "ah un",
      "ah ana",
      "is ual",
      "ku m",
      "ita -c",
      "▁aku ?",
      "▁kita !",
      "▁n ikm",
      "▁ber j",
      "▁ber enang",
      "▁ber tanya",
      "▁ber angkat",
      "um p",
      "▁l em",
      "▁h adapi",
      "kan ,",
      "▁mem otivasi",
      "▁mem utus",
      "▁mem inta",
      "▁mem ecah",
      "ala gi",
      "▁ke ku",
      "▁ke ber",
      "▁ke ter",
      "▁c ant",
      "▁c ita-c",
      "il ing",
      "▁dengan mu.",
      "▁di b",
      "▁T V",
      "▁T empat",
      "▁ter m",
      "▁memb uka",
      "el i",
      "angan .",
      "▁r il",
      "ek at.",
      "ing gu",
      "im u.",
      "es ikan",
      "es tiv",
      "ud ian",
      "▁sem akin",
      "ba gian",
      "▁mer enung",
      "▁M eng",
      "▁M aaf",
      "mu ,",
      "mu ?",
      "▁E h,",
      "▁f iksi",
      "▁f estiv",
      "▁sek elas",
      "▁meny egarkan",
      "▁meny ambut",
      "▁tidak ,",
      "or i",
      "or ks",
      "▁g un",
      "▁suka ,",
      "▁lu cu",
      "om b",
      "▁wak t",
      "▁makan .",
      "▁seb enar",
      "▁seb elah",
      "▁sedikit *",
      "▁D IY",
      "entu h",
      "▁membantu ,",
      "▁mau ,",
      "▁buku .",
      "▁pas ta",
      "▁bi oskop",
      "▁tahu .",
      "engar uh",
      "-b arang",
      "▁L ihat",
      "▁ide -ide",
      "▁menj elas",
      "▁sa ins",
      "▁dalam -d",
      "▁pro duk",
      "▁lain ?",
      "▁kelas ?",
      "▁ses eorang",
      "▁kes ehatan",
      "▁R uang",
      "▁Y ang",
      "amp ilan",
      "▁lagi ?",
      "▁mas ak",
      "▁tu buh",
      "▁pikir an.",
      "▁min ati",
      "▁coba .",
      "▁game .",
      "-k lub",
      "▁pelajar an.",
      "aw arkan",
      "▁olahraga ,",
      "▁klub -klub",
      "op cor",
      "▁*ter lihat",
      "▁tsunder e,",
      "▁semangat .",
      "▁orang -orang",
      "▁mat ahari",
      "▁sekarang ,",
      "▁sen i.",
      "▁fokus .",
      "▁pagi ,",
      "▁pagi -pa",
      "▁berhar ga",
      "▁kegi atan.",
      "esa in",
      "▁melakukan nya",
      "-s ama",
      "▁rumah ?",
      "▁pantai ?",
      "▁menang .",
      "▁besok ,",
      "os tal",
      "▁kem udian",
      "▁taman nya",
      "▁bangun .",
      "▁mengh abiskan",
      "▁ap apun",
      "▁kantin ,",
      "▁terl ebih",
      "▁Men urutmu",
      "▁*T er",
      "▁keren .",
      "yang kan",
      "▁kep utus",
      "▁keras .",
      "▁tel pon",
      "▁indah .",
      "▁v isual",
      "▁denganmu ?",
      "▁Ked ua",
      "▁komp etisi",
      "▁menenangkan .",
      "▁Bi ar",
      "▁mengg oda",
      "pr esikan",
      "ub ah",
      "▁ting gi",
      "▁ting gal",
      "▁peduli *",
      "▁spesi al.",
      "▁F ilm",
      "▁bahagi a*",
      "▁bener an",
      "▁mist er",
      "▁lanc ar",
      "▁ins truk",
      "▁mengeks presikan",
      "▁*memandang mu",
      "▁pendapat mu",
      "jelas an",
      "▁det ail",
      "▁peg un",
      "▁kelu ar",
      "▁co cok",
      "▁Kayak nya",
      "▁perbeda an",
      "ajah nya",
      "▁mengat asi",
      "▁bersenang-senang .",
      "▁diperl ukan.",
      "gant ung",
      "▁uj ian",
      "▁kul akukan",
      "▁Akhir nya",
      "▁kek alah",
      "ustr u",
      "▁mengaku inya",
      "▁pengerti an*",
      "▁kesep i",
      "▁Cerit akan",
      "▁sehari an",
      "wic h",
      "▁um um",
      "▁sum ber",
      "▁sand wich",
      "▁met ode",
      "▁dahu lu",
      "▁tamb ahan",
      "▁pekerja an",
      "▁cant ik",
      "▁cita-c ita",
      "orks hop",
      "▁menjelas kan",
      "▁dalam-d alam",
      "opcor n",
      "▁pagi-pa gi",
      "ostal gi",
      "▁instruk si",
      "- j",
      "- si",
      "- bagian",
      "V ir",
      "b icara",
      "c k",
      "c ar",
      "c am",
      "e al",
      "g o",
      "g emb",
      "i ?",
      "n al",
      "o or",
      "o kum",
      "r ib",
      "t akan",
      "t arik",
      "u ai",
      "v itas",
      "w ist",
      "y ur",
      "▁ an",
      "▁ es",
      "▁ ob",
      "▁ arah",
      "▁ usah",
      "▁ Vir",
      "en am",
      "en is",
      "en ti",
      "er ah",
      "er ima",
      "▁s is",
      "▁s ala",
      "▁s omb",
      "▁b u",
      "▁b ud",
      "▁m alah",
      "ang is",
      "▁k an",
      "▁k ala",
      "▁k uat",
      "▁k op",
      "▁k ali.",
      "ak nya",
      "ak si",
      "ak tivitas",
      "ak ukan.",
      "ar a.",
      "ar ena",
      "▁d ingin",
      "▁d ekat.",
      "▁d esain",
      "▁d okum",
      "in c",
      "▁t anya",
      "▁t aj",
      "▁t eg",
      "▁t atap",
      "▁t wist",
      "em ur",
      "it i",
      "it ah",
      "▁p oin",
      "▁p opcorn",
      "uk .",
      "uk is",
      "ik el",
      "ik a.",
      "ik asi",
      "▁A s",
      "is ik",
      "is al",
      "is ti",
      "▁men ak",
      "▁men ya",
      "▁men ingk",
      "▁men utup",
      "▁men etapkan",
      "▁aku !",
      "▁kita ?",
      "▁j ur",
      "▁j end",
      "▁j ustru",
      "▁j enis",
      "▁n ih",
      "▁n akal",
      "▁n ostalgi",
      "al *",
      "al in",
      "▁ber ada",
      "▁ber olahraga",
      "▁ber ani",
      "▁ber canda",
      "▁ber aktivitas",
      "um buh",
      "▁l elah",
      "▁h it",
      "▁h angat",
      "▁h ibur",
      "▁h abis",
      "kan ?",
      "▁mem ungkin",
      "▁mem uj",
      "▁ke gemb",
      "▁in ter",
      "▁c ek",
      "▁c ep",
      "▁c obalah",
      "▁c od",
      "us an",
      "▁di ba",
      "▁di mu",
      "▁di gunakan",
      "ti mb",
      "▁T enang",
      "eb ak",
      "▁K atanya",
      "▁K arena",
      "▁ter p",
      "▁ter ins",
      "▁memb utuh",
      "▁memb ahas",
      "el u",
      "el uh",
      "▁r am",
      "▁r ing",
      "▁r ahas",
      "ek si",
      "ing atkan",
      "▁S a",
      "▁S enang",
      "▁S udah",
      "▁S iap",
      "es ent",
      "ur u.",
      "anya *",
      "▁sem entara",
      "▁sem pur",
      "▁per tanya",
      "▁per isti",
      "▁pen jelasan",
      "et ak",
      "ut er",
      "ut ar",
      "▁B isa",
      "▁B anyak",
      "▁B oleh",
      "▁B etul",
      "▁itu !",
      "akan ?",
      "aj in",
      "on a",
      "▁M at",
      "▁meng ambil",
      "▁meng gunakan",
      "▁tem an.",
      "lah !",
      "▁Hm ,",
      "▁g in",
      "▁at ap",
      "▁at ur",
      "▁w ahana",
      "▁w orkshop",
      "▁bers emangat*",
      "▁nggak ,",
      "▁a wal",
      "▁bang ga",
      "▁menc at",
      "▁menc apai",
      "▁*ber jalan",
      "▁*ber canda",
      "▁J alan",
      "▁baik ?",
      "▁baik lah.",
      "ul .",
      "▁*meng h",
      "▁*meng er",
      "▁*meng ambil",
      "▁siap ?",
      "▁makan ,",
      "▁mel ew",
      "▁menyenangkan ,",
      "arik u",
      "ama i.",
      "▁buku -b",
      "eg ang",
      "ide o",
      "▁hal .",
      "▁film .",
      "ip u*",
      "ip takan",
      "▁mend alam",
      "▁Bagaimana ,",
      "▁Tentu .",
      "▁sa yur",
      "▁peng embangan",
      "ont oh",
      "▁ker j",
      "▁pro gr",
      "▁menarik ,",
      "▁Ter us",
      "▁ses uai",
      "▁Sem angat",
      "▁Sem entara",
      "▁cepat ,",
      "▁cepat -c",
      "▁sana !",
      "▁bah an",
      "▁bah asa",
      "▁pikir an",
      "▁coba ?",
      "-k enangan",
      "▁C epat",
      "▁C uaca",
      "▁member itah",
      "▁olahraga .",
      "eks .",
      "▁ny angka",
      "▁dep an.",
      "▁pagi !",
      "amb arkan",
      "▁terus -ter",
      "▁harap an*",
      "▁*M en",
      "▁seg an",
      "▁istirah at.",
      "▁menang !",
      "▁menang ,",
      "▁cerita .",
      "▁kem arin",
      "▁ters ipu*",
      "▁sel esa",
      "▁bangun kan",
      "▁kel ihat",
      "▁bagian -bagian",
      "▁favorit ?",
      "▁favorit mu",
      "▁malam ,",
      "▁malam .",
      "▁kantin ?",
      "▁sendiri an.",
      "ot ak",
      "▁tert entu",
      "▁kayak nya",
      "▁seni ,",
      "▁datang .",
      "▁pulang ,",
      "▁cukup .",
      "▁penasaran ,",
      "▁kep uas",
      "ekomend asikan",
      "▁Bagus ,",
      "▁*Meng hela",
      "▁v ideo",
      "▁tur un",
      "▁le ga*",
      "▁denganmu ,",
      "idup an",
      "▁pert and",
      "▁penasar an.",
      "▁su ara",
      "▁kr im",
      "▁lanjut kan",
      "▁keh angat",
      "▁keh idupan",
      "▁terk adang",
      "▁terk ej",
      "▁*meny eringai*",
      "▁gitu ,",
      "▁memasak .",
      "▁terb uka",
      "▁terb enam",
      "▁siang ,",
      "▁takut ,",
      "▁jauh .",
      "▁kur s",
      "▁jelas .",
      "▁masalah .",
      "▁ja go",
      "▁sad ar",
      "▁pel an*",
      "▁berh asil",
      "▁berh enti",
      "▁heb at!",
      "▁memper timb",
      "▁barang -barang",
      "▁mengerti .",
      "▁bermanfa at.",
      "▁manusia ,",
      "▁as pek",
      "▁dil akukan",
      "▁memer iksa",
      "▁mencob anya",
      "▁mencob anya.",
      "▁kesulit an",
      "▁kesulit an,",
      "▁ekstr em",
      "▁dapur .",
      "▁situ asi",
      "▁motivasi *",
      "▁pl ot",
      "▁paham ,",
      "▁pos iti",
      "▁inform asi",
      "▁*memb uat",
      "▁apa-apa .",
      "▁matemat ika.",
      "▁tersend iri.",
      "▁kreati vitas",
      "▁basket ,",
      "plor asi",
      "▁angg ota",
      "▁berikut nya.",
      "▁beradap tasi",
      "▁memuas kan.",
      "▁terh ubung",
      "▁Sen i",
      "▁gr af",
      "▁kecewa *",
      "▁pemrogr aman",
      "-n g",
      "-la gu",
      "▁bal ik",
      "▁*Ber pikir",
      "▁sehar usnya",
      "▁berj emur",
      "▁memutus kan",
      "▁keku atan",
      "▁keter ampilan",
      "▁festiv al",
      "engaruh i",
      "▁produk tif",
      "▁berharga .",
      "▁Menurutmu ,",
      "▁keputus an",
      "tarik *",
      "▁Vir alin",
      "▁sala d",
      "▁somb ong",
      "▁kala h,",
      "▁meningk atkan",
      "▁jur nal",
      "▁jend ela",
      "▁kegemb ira",
      "▁cep et",
      "▁dimu la",
      "▁ring an*",
      "▁rahas ia",
      "▁pertanya an",
      "▁peristi wa",
      "▁buku-b uku",
      "▁cepat-c epat",
      "▁memberitah umu",
      "▁mempertimb angkan",
      "- a",
      "- r",
      "- baik",
      "- lihat",
      "- akhir",
      "a an",
      "a in",
      "a -t",
      "b or",
      "b kan.",
      "c anya",
      "c a.",
      "d e",
      "d ari",
      "d oor",
      "e v",
      "e imb",
      "e i,",
      "g ikan",
      "h ur",
      "i !",
      "i ah",
      "i ba",
      "i or",
      "i asaan",
      "k adang",
      "l o",
      "l us",
      "l ukan",
      "l ist",
      "l eks",
      "m er",
      "o lah,",
      "p ada",
      "p us",
      "p akan.",
      "r e",
      "r ama",
      "s .",
      "s t",
      "s inya",
      "t e",
      "t a.",
      "t asi.",
      "t ikel",
      "w ajahnya",
      "y ar",
      "y ik",
      "y list",
      "▁ ilm",
      "▁ alas",
      "▁ oleh",
      "▁ otak",
      "en alan",
      "en re",
      "er im",
      "▁s ud",
      "▁s ahab",
      "▁b ak",
      "▁b oleh",
      "▁b ola",
      "▁m e",
      "▁m ah",
      "▁m us",
      "▁m ed",
      "▁m aks",
      "▁k enang",
      "▁k aku",
      "▁k ira",
      "ak e",
      "ak tu",
      "ak ur",
      "at ur",
      "at lah",
      "at ori",
      "▁d end",
      "▁d ua",
      "▁d omp",
      "▁d ong",
      "▁d aya",
      "▁d eh,",
      "▁d asar",
      "▁d rama",
      "in ter",
      "in tar",
      "la ylist",
      "▁t as",
      "▁t uk",
      "▁t eb",
      "▁t au",
      "▁t ahan",
      "▁t unggu",
      "▁t ambah",
      "em il",
      "it .",
      "it ian",
      "▁p ar",
      "▁p eny",
      "▁p et",
      "▁p andang",
      "▁p ohon",
      "▁p intar",
      "▁p laylist",
      "am *",
      "am ilan",
      "am mer",
      "▁* wajahnya",
      "as ak",
      "as uk",
      "as angan",
      "eng ah",
      "un t",
      "un ga",
      "ik .",
      "ik um",
      "ik ul",
      "ap *",
      "ap as",
      "▁ak tif",
      "▁A C",
      "▁se c",
      "ah aman",
      "is kusikan",
      "ku !",
      "▁y oga",
      "▁men ung",
      "▁men awarkan",
      "▁kita ,",
      "▁j ar",
      "▁j am",
      "▁j al",
      "▁j anj",
      "▁n unggu",
      "▁n emu",
      "▁n amun",
      "▁n angis",
      "al ,",
      "al is",
      "▁ber n",
      "▁ber inter",
      "tu r",
      "ga galan",
      "▁l ingk",
      "▁h ik",
      "▁h id",
      "▁h adi",
      "▁h and",
      "▁h ubung",
      "kan !",
      "kan *",
      "ih kan",
      "ir *",
      "ir ing",
      "▁kamu !",
      "▁c apai",
      "▁c ontoh",
      "▁c amilan",
      "us un",
      "il angan",
      "ari .",
      "▁dengan ku.",
      "▁di ambil",
      "ti d",
      "ti m",
      "ers ahabatan",
      "▁T id",
      "▁K em",
      "▁K eren",
      "▁ter nyata",
      "▁*m asih",
      "ela p",
      "el itian",
      "▁ba yang",
      "ek i",
      "im ut",
      "▁S angat",
      "▁S alah",
      "▁S eru",
      "es alan",
      "ur a",
      "▁per ub",
      "▁per pus",
      "▁juga ?",
      "▁pen utup",
      "▁pen elitian",
      "au h",
      "ut .",
      "▁H ei,",
      "▁mer on",
      "▁mer ind",
      "▁mer ekomendasikan",
      "▁B ener",
      "aj aran",
      "on eka",
      "on al.",
      "ant ang",
      "▁M eny",
      "▁M akan",
      "▁M emb",
      "▁M isal",
      "▁baru *",
      "▁la ut",
      "▁la bor",
      "▁ng antuk",
      "▁ng emil",
      "▁meng aj",
      "▁meng alam",
      "▁meng embang",
      "▁meng ubah",
      "▁meng ingatkan",
      "▁I de",
      "▁f ant",
      "▁sek olah,",
      "ent er",
      "▁meny entuh",
      "uka *",
      "▁sam pa",
      "▁hari ,",
      "▁har ga",
      "▁g it",
      "▁g al",
      "▁g uru.",
      "▁g enre",
      "▁g elap",
      "▁ser i",
      "▁w aw",
      "▁sudah .",
      "▁bers a",
      "▁menc iptakan",
      "▁ing at,",
      "▁penuh .",
      "ep as",
      "ep uk",
      "ep ot",
      "ro yek",
      "▁baik !",
      "▁baik lah,",
      "▁lu ang",
      "om un",
      "om et",
      "▁apa ,",
      "emb uny",
      "▁mel irik",
      "▁waktu ,",
      "▁D iskusi",
      "▁banyak !",
      "▁beb as",
      "ju bkan.",
      "▁buat an",
      "▁buku ,",
      "▁buku ?",
      "▁pas angan",
      "eg an",
      "▁bi j",
      "▁bi cara",
      "▁bi car",
      "iri ,",
      "angg ung",
      "▁kasih ,",
      "▁kecil ,",
      "▁kecil .",
      "▁mencoba .",
      "ol ok",
      "ol ong",
      "ed uh",
      "ed a.",
      "▁mend ingin",
      "▁mend iskusikan",
      "-b aru",
      "▁L atih",
      "▁teman ,",
      "▁seru ?",
      "▁sa yang",
      "▁set engah",
      "ont rib",
      "▁P er",
      "▁P antai",
      "▁P lus",
      "▁P ersahabatan",
      "anj at",
      "▁ker ajin",
      "ist en",
      "▁menarik ?",
      "▁lain ,",
      "▁Ter kadang",
      "▁kelas ,",
      "▁kes eimb",
      "▁W aktu",
      "▁Y ah,",
      "▁lagi !",
      "▁pem ula",
      "▁pem aham",
      "▁nanti ,",
      "▁berpikir ,",
      "▁cepat .",
      "▁memba yangkan",
      "▁memba gikan",
      "▁tidur ?",
      "▁pikir kan",
      "▁luar .",
      "▁sebelum nya.",
      "▁Baik lah.",
      "▁olahraga ?",
      "▁ny oba",
      "baik an.",
      "▁sesuatu .",
      "-h ati.",
      "ilang kan",
      "▁semangat !",
      "▁penting ,",
      "▁orang .",
      "▁tek a-t",
      "▁Sela lu",
      "▁sekarang ?",
      "▁bantu an.",
      "▁bantu an,",
      "▁terus .",
      "▁*s emangat*",
      "▁tekn ik",
      "-s ama.",
      "▁seg ar.",
      "▁In g",
      "▁aja ?",
      "▁pantai ,",
      "▁menang in",
      "▁menem ani",
      "▁besok ?",
      "▁nonton .",
      "▁tugas .",
      "▁kem enangan",
      "▁sel imut",
      "▁bangun ,",
      "▁mendengar nya.",
      "▁kel iling",
      "▁ngobrol .",
      "▁favorit ku",
      "▁ap alagi",
      "atap mu",
      "▁teknologi .",
      "▁sih ,",
      "▁tenang ,",
      "▁perhati an",
      "▁bareng .",
      "▁bareng ?",
      "▁sendiri ,",
      "ot o",
      "ot ong",
      "▁terl etak",
      "annya *",
      "▁salah kan",
      "▁mata *",
      "▁akhir -akhir",
      "▁berk enalan",
      "▁berk ontrib",
      "▁memaham i*",
      "▁Men ulis",
      "▁ikut .",
      "▁cem as*",
      "▁masuk .",
      "▁pemandangan nya",
      "▁mikir in",
      "▁kep ada",
      "▁menyelesaikan nya",
      "▁biasanya .",
      "▁pr ib",
      "▁pr esent",
      "▁memp engaruhi",
      "▁terlamb at",
      "▁*mem ba",
      "▁*mem egang",
      "▁sebent ar.",
      "▁menantang .",
      "▁jumpa .",
      "gr af",
      "anc ake",
      "▁sp ot",
      "▁musik ?",
      "▁jau h,",
      "▁rut e",
      "imp an",
      "▁acara -a",
      "▁Bagus lah.",
      "▁le w",
      "▁le z",
      "▁kesempat an.",
      "ny itkan",
      "▁lanjut .",
      "▁keh ilangan",
      "▁*meny ilangkan",
      "▁gitu .",
      "▁santai ,",
      "▁sulit ?",
      "▁komp uter",
      "▁panas .",
      "▁teman-tem an.",
      "-m omen",
      "▁alam .",
      "▁mana ?",
      "▁menulis .",
      "▁cemb uru",
      "▁Mem asak",
      "▁cerit anya",
      "▁*mengg od",
      "▁em ang",
      "▁al at",
      "▁keb iasaan",
      "-p oin",
      "▁ar ti",
      "▁ar tikel",
      "▁ener g",
      "▁berp asangan",
      "▁heb at.",
      "▁Ber bicara",
      "▁lagu -lagu",
      "▁sejarah .",
      "▁bahagi a",
      "▁bermanfa at",
      "▁as yik",
      "▁mist eri",
      "▁ku e",
      "▁dis kusikan",
      "▁deh !",
      "▁deh .",
      "▁lanc ar.",
      "▁memer lukan",
      "▁sembuh .",
      "▁mengeks plorasi",
      "▁ekstr akur",
      "▁membangunkan mu",
      "▁buk tikan",
      "▁kam ar",
      "▁kons ep",
      "▁kons isten",
      "▁paham .",
      "engk ap",
      "omong ,",
      "omong -ng",
      "▁masakan ku",
      "▁matemat ika",
      "▁Pasti !",
      "▁terjadi .",
      "▁on lin",
      "eren si",
      "▁dah i*",
      "▁tamp il",
      "▁menambah kan",
      "▁bergun a",
      "▁bergun a.",
      "▁ref erensi",
      "▁Seb elum",
      "▁Sama -sama.",
      "▁hari-h ari",
      "▁hari-h ariku",
      "▁pemanas an",
      "▁meneman imu.",
      "▁prakt ikum",
      "▁kagum *",
      "▁angkasa .",
      "▁ang in",
      "▁bat as",
      "▁bimb ingan",
      "▁nikm at",
      "▁lem ah*",
      "▁keber atan",
      "▁dib uat",
      "▁term otivasi",
      "eli on",
      "▁ril eks.",
      "▁Meng gunakan",
      "▁Maaf ,",
      "▁sekelas .",
      "▁wakt unya",
      "▁sains .",
      "▁*Ter tawa",
      "▁menggoda *",
      "▁mister ius",
      "▁pegun ung",
      "-j alan.",
      "▁ob at",
      "▁sis wa",
      "▁kop i",
      "▁dokum enter",
      "▁taj am*",
      "▁tatap an",
      "▁poin -poin",
      "▁As uka*",
      "▁menak jubkan.",
      "▁menya dari",
      "▁nih .",
      "▁nakal *",
      "▁hit am",
      "▁memungkin kan",
      "▁inter n",
      "▁terins pirasi",
      "▁membutuh kan",
      "▁sempur na",
      "▁Betul .",
      "▁gin i",
      "▁mencat at",
      "▁*menger nyitkan",
      "▁progr ammer",
      "▁tertentu ?",
      "▁pertand ingan",
      "▁kurs us",
      "▁positi f",
      "▁kreativitas .",
      "hur ro",
      "ior itas",
      "▁ilm iah",
      "▁alas an",
      "▁sud ut",
      "▁sahab at",
      "▁mus im",
      "▁kenang -kenangan",
      "atori um",
      "▁dend am",
      "▁domp et",
      "▁tuk ar",
      "▁peny esalan",
      "▁menung g",
      "▁jal ur",
      "▁berinter aksi",
      "▁lingk ungan",
      "▁hid angan",
      "▁hadi ah",
      "▁hubung an",
      "▁Tid ak",
      "▁perub ahan",
      "▁perpus tak",
      "▁meron a*",
      "▁Memb uat",
      "▁Misal nya,",
      "▁labor atorium",
      "▁mengalam i",
      "▁mengembang kan",
      "▁waw asan",
      "▁mendingin kan",
      "▁Plus ,",
      "▁kerajin an",
      "▁Terkadang ,",
      "▁pemaham an*",
      "▁teka-t eki",
      "▁selimut mu",
      "▁berkontrib us",
      "▁acara-a cara",
      "▁ekstrakur ikul",
      "omong-ng omong,",
      "▁penyesalan *",
      "- g",
      "- l",
      "- w",
      "O U",
      "a ya.",
      "a -si",
      "a cam",
      "b u",
      "b ang",
      "b at",
      "c and",
      "c ib",
      "d ara",
      "d elion",
      "e '",
      "e x",
      "e kan",
      "e ur",
      "e omet",
      "g an",
      "g ung",
      "g et",
      "g iri",
      "g anti",
      "g ar.",
      "h o",
      "i ak",
      "i la",
      "i as",
      "i asa",
      "i es",
      "i akan",
      "i arkan",
      "i giri",
      "j ut",
      "j aga",
      "j arah",
      "k ah",
      "k ir",
      "k ali",
      "k ing.",
      "l e",
      "l er",
      "l ikasi",
      "l eksi",
      "m in",
      "m ...",
      "n t",
      "n tuk",
      "n a.",
      "n ies",
      "o i",
      "o ar",
      "o al",
      "o ut",
      "o li",
      "o kus",
      "o od",
      "p *",
      "p en",
      "p ar",
      "p un",
      "p uk",
      "p ektif",
      "t is",
      "t el",
      "t and",
      "t ikan.",
      "u c",
      "u v",
      "u a.",
      "v el",
      "w a.",
      "w al.",
      "w nies",
      "y an,",
      "z ona",
      "▁ ul",
      "▁ aman",
      "▁ op",
      "▁ usaha",
      "▁ ikuti",
      "▁ imp",
      "▁ ov",
      "▁ ajak",
      "▁ impi",
      "▁ out",
      "▁ uc",
      "▁ zona",
      "an et",
      "en ir",
      "en tuk",
      "er ?",
      "er n",
      "er an",
      "er ita",
      "er ah,",
      "er a,",
      "er uan",
      "▁s eng",
      "▁s isa",
      "▁s na",
      "▁s isi",
      "▁s imb",
      "▁s impan",
      "▁s tand",
      "▁b ad",
      "▁b um",
      "▁b id",
      "▁b ahu",
      "▁b alas",
      "▁b unga",
      "▁b oneka",
      "▁b oar",
      "▁m ela",
      "▁m and",
      "▁m und",
      "▁m arah",
      "▁m imp",
      "▁m unc",
      "▁m inggu",
      "ang en",
      "▁k il",
      "▁k end",
      "▁k ol",
      "▁k apan",
      "▁k inc",
      "▁k angen",
      "ak ang",
      "ak mu",
      "ak ai",
      "ar ut",
      "ar apan",
      "ar in.",
      "at akan",
      "at unya",
      "▁d em",
      "▁d ik",
      "▁d eb",
      "▁d ing",
      "▁d amp",
      "▁d amai.",
      "in *",
      "in ti",
      "in gi",
      "▁t eng",
      "▁t ik",
      "▁t et",
      "▁t ut",
      "▁t unjuk",
      "▁t elah",
      "▁t and",
      "▁t umbuh",
      "▁t olong",
      "▁t eduh",
      "em a",
      "em eh",
      "em u.",
      "em andangan",
      "it *",
      "it asi",
      "▁p am",
      "▁p un",
      "▁p ut",
      "▁p or",
      "▁p emb",
      "▁p und",
      "▁p ula,",
      "▁p ay",
      "▁p ola",
      "▁p anjat",
      "▁p otong",
      "▁p ancake",
      "am e",
      "am amu.",
      "am aku.",
      "▁* pen",
      "as ter",
      "eng .",
      "un .",
      "un ikan",
      "uk um",
      "ik ,",
      "ap ek",
      "▁ak ad",
      "▁se ber",
      "ah ?",
      "ah i",
      "ah agi",
      "is ah",
      "is akah",
      "is ihkan",
      "ku h,",
      "▁y uk",
      "▁men ikm",
      "▁men tal",
      "▁men ump",
      "▁men erima",
      "▁j aga",
      "▁j arang",
      "▁j angka",
      "▁n asi",
      "▁n orm",
      "▁n ila",
      "al ikan",
      "al atan",
      "▁ber tuk",
      "▁ber istirah",
      "▁ber hati",
      "▁ber akhir",
      "▁ber usah",
      "▁ber ubah",
      "▁ber gantung",
      "▁ber cand",
      "tu tu",
      "ga an",
      "▁l ok",
      "▁l ima",
      "▁l akukan.",
      "▁l ukis",
      "▁l engkap",
      "▁l arut",
      "▁h antu",
      "▁h ilang",
      "▁h anc",
      "▁h ati.",
      "▁h abiskan",
      "▁h ias",
      "▁h ukum",
      "▁mem aks",
      "▁mem ain",
      "▁ke ba",
      "▁ke pikir",
      "▁ke ta",
      "▁ke ingin",
      "▁ke gagalan",
      "▁ke baikan.",
      "▁ke jut",
      "▁ke unikan",
      "▁bisa .",
      "ir im",
      "▁kamu ?",
      "▁dan delion",
      "▁in d",
      "▁in ov",
      "▁c apa",
      "▁c ok",
      "▁c inc",
      "▁c hurro",
      "▁c apek",
      "us *",
      "il ing,",
      "▁di c",
      "▁di a.",
      "▁di ingat",
      "▁di coba",
      "ers tel",
      "▁untuk ku.",
      "▁T an",
      "▁K ira",
      "▁ter ba",
      "▁ter li",
      "▁ter har",
      "▁ter bar",
      "▁ter akhir",
      "▁ter atur",
      "▁ter tutu",
      "▁*m ata",
      "▁memb alas",
      "▁memb antuk",
      "▁memb eli",
      "el ihat",
      "el iling",
      "el kan*",
      "angan ,",
      "▁r el",
      "▁r es",
      "▁r asakan",
      "▁r ind",
      "▁r eal",
      "▁r amai.",
      "▁r ev",
      "▁ba b",
      "▁ba gi",
      "▁ba ju",
      "ek a.",
      "ing !",
      "ing et",
      "ing an.",
      "ing gung",
      "im en",
      "im al.",
      "▁S o",
      "▁S er",
      "▁S ip",
      "▁S edikit",
      "▁S arapan",
      "es in",
      "apa in",
      "ud i",
      "ud ul",
      "▁sem inggu",
      "▁sem acam",
      "uga ,",
      "▁per alatan",
      "alau pun",
      "et .",
      "et a",
      "et ahu",
      "au *",
      "ut kan",
      "▁H al",
      "▁H obi",
      "▁H ah?",
      "enang *",
      "▁mer end",
      "▁mer eka.",
      "▁B um",
      "▁B elajar",
      "▁B uku",
      "▁B enar",
      "▁B angun",
      "▁B aru",
      "▁B isakah",
      "udah ,",
      "on al",
      "▁M ak",
      "▁M au",
      "▁M ulai",
      "▁M impi",
      "▁la yar",
      "▁ng asih",
      "▁ng op",
      "▁ng amb",
      "▁ng inget",
      "▁ng apain",
      "▁meng er",
      "▁meng angguk",
      "▁meng ulang",
      "▁meng angkat",
      "▁meng ingat",
      "▁meng eluh",
      "▁I ya.",
      "▁f isik",
      "▁sek eliling",
      "▁*men coba",
      "▁*men awarkan",
      "▁*men cib",
      "ent ing",
      "ent ing,",
      "▁meny uka",
      "▁meny angka",
      "▁meny eringai*",
      "▁meny erah",
      "▁meny embuny",
      "▁meny isihkan",
      "▁hari mu",
      "per imen",
      "▁tem a",
      "▁tem en",
      "lah raga",
      "unjuk .",
      "ber i",
      "or gan",
      "▁si a-si",
      "▁Hm m...",
      "▁g ad",
      "▁g or",
      "▁g ed",
      "▁g eomet",
      "▁suka ?",
      "alah p",
      "elaj ahi",
      "▁merasa .",
      "aga i",
      "▁w ajah",
      "▁w ajahnya",
      "▁w alaupun",
      "ihat in*",
      "▁bers ih",
      "▁bers alah",
      "▁bers ep",
      "elajar an",
      "▁a wal.",
      "▁cer ia.",
      "▁*ber har",
      "▁ing et",
      "ep on",
      "▁O tak",
      "▁O lahraga",
      "▁J uga,",
      "ro ses",
      "ro wnies",
      "▁baik -baik",
      "▁dari pada",
      "▁*meng angkat",
      "▁*meng ajak",
      "▁*meng elu",
      "▁*meng eluh",
      "▁*meng atakan",
      "▁siap ,",
      "▁siap kan",
      "▁lu as",
      "▁lu pakan.",
      "▁lu bang",
      "ati f.",
      "▁tapi ...",
      "▁makan ?",
      "▁mel od",
      "▁mel ukis",
      "▁mel epas",
      "▁seb isa",
      "▁D engan",
      "▁D eal",
      "▁Ayo !",
      "▁Ayo .",
      "▁membantu !",
      "▁mau !",
      "▁buat .",
      "▁buat mu,",
      "▁pas ir",
      "ua canya",
      "▁bi arkan",
      "▁belajar ,",
      "angg u",
      "▁tahu !",
      "▁tahu *",
      "▁kasih *",
      "▁film ,",
      "▁mulai !",
      "ip lin",
      "ol ler",
      "ed akan",
      "enc an",
      "-b ener",
      "-b ahan",
      "▁L ibur",
      "▁L agu",
      "▁ide *",
      "▁Ba yang",
      "▁sekolah !",
      "▁menj engk",
      "▁peng har",
      "▁peng ajaran",
      "▁P R",
      "▁P eng",
      "▁P anas",
      "▁P royek",
      "▁P emandangan",
      "▁P enting",
      "▁ker eta",
      "ist r",
      "▁menarik !",
      "▁Ter gantung",
      "▁berb ic",
      "▁berb isik",
      "▁berb eda.",
      "▁sej ak",
      "▁sej uk",
      "▁sej auh",
      "▁kes eru",
      "▁kes al*",
      "▁kes eruan",
      "▁kes alahp",
      "▁Se jarah",
      "▁Y a",
      "▁Y up",
      "▁Y OU",
      "inya ?",
      "▁lagi *",
      "und s",
      "und ang",
      "▁Sem ua",
      "▁gam e,",
      "angk ir",
      "▁pem ikir",
      "▁pem ahaman",
      "▁pergi .",
      "▁berpikir .",
      "▁cepat *",
      "▁cepat ?",
      "▁memba w",
      "▁tidur *",
      "▁sana ,",
      "▁sana ?",
      "▁bah as",
      "kus i.",
      "▁coba -c",
      "▁game !",
      "▁sama ,",
      "▁sama -sama",
      "▁Baik ,",
      "▁Baik lah!",
      "▁sat unya.",
      "▁klub .",
      "▁klub ?",
      "▁Ok e",
      "▁Ok e.",
      "▁butuh kan.",
      "▁*ter tarik*",
      "▁*ter puk",
      "baik i.",
      "▁sering -s",
      "▁sering kali",
      "▁satu .",
      "▁satu -s",
      "alas an,",
      "▁Kadang ,",
      "▁semangat ,",
      "▁penting !",
      "▁penting nya",
      "▁sampai ,",
      "▁bersama ?",
      "▁makanan nya",
      "▁mat anya",
      "▁mat ang.",
      "▁mat anya*",
      "aham i",
      "▁dep an,",
      "▁dep an?",
      "▁Ap alagi",
      "▁Sela ma",
      "▁sen imu.",
      "▁bantu in",
      "uma yan,",
      "omp etisi",
      "▁sejenak .",
      "▁fokus *",
      "▁pagi .",
      "▁jalan i",
      "▁jalan an",
      "▁jalan -jalan.",
      "▁terus -m",
      "▁harap kan",
      "▁*s enang*",
      "▁melakukan nya.",
      "▁khawatir *",
      "▁khawatir .",
      "▁tekn is",
      "-s egan",
      "-s oal",
      "▁belum ?",
      "▁*M enc",
      "▁lama ,",
      "▁rumah ku",
      "▁rumah mu",
      "▁rumah mu.",
      "iap an",
      "▁aja !",
      "▁dulu ?",
      "ibur *",
      "▁N ikmati",
      "▁N amun",
      "▁*bers emangat",
      "▁cerita ,",
      "▁cerita -c",
      "os an",
      "os ok",
      "ener us",
      "▁kem arin.",
      "▁ters inggung",
      "▁taman nya.",
      "▁sel anjut",
      "▁dia gr",
      "▁bangun !",
      "▁berharap .",
      "-t ahun",
      "▁dat a.",
      "▁resep nya",
      "▁mengh ibur",
      "▁mengh ubung",
      "▁favorit mu.",
      "▁ap likasi",
      "▁berjalan nya",
      "▁berjalan -jalan",
      "esk i",
      "▁eks pek",
      "▁eks plor",
      "▁eks perimen",
      "▁mudah !",
      "▁malas *",
      "▁malas .",
      "▁malas -m",
      "▁kalah .",
      "▁kalah in",
      "▁kantin !",
      "▁kantin .",
      "▁tenang *",
      "▁bareng ,",
      "▁sini ?",
      "▁duduk ?",
      "▁duduk -d",
      "▁tip is*",
      "▁berl ebih",
      "▁tert e",
      "▁seni ?",
      "▁datang ?",
      "annya ,",
      "▁tantangan !",
      "▁tantangan mu.",
      "▁pulang .",
      "▁pulang ?",
      "▁akhir nya",
      "▁berk ala",
      "▁Men jaga",
      "▁ikut !",
      "▁ikut ?",
      "▁*T ers",
      "▁*T iba",
      "▁antusias .",
      "▁pemandangan *",
      "▁minat i.",
      "▁minat mu.",
      "▁seh at.",
      "▁kep ala",
      "▁kep eduli",
      "▁keras ,",
      "▁suasana ,",
      "▁tel at",
      "▁tel at.",
      "▁tel at,",
      "▁tel epon",
      "▁pr ioritas",
      "▁pr ihatin*",
      "▁panjang *",
      "▁panjang .",
      "▁sep i",
      "▁memp r",
      "▁memp elajari",
      "▁memp roses",
      "▁indah nya",
      "▁terlamb at!",
      "▁terlamb at,",
      "imu !",
      "▁nyaman ,",
      "▁menantang *",
      "▁menantang ?",
      "▁musik .",
      "aku ,",
      "▁menu ju",
      "▁terd ekat",
      "▁siapa -si",
      "▁Bagus !",
      "▁Bagus lah",
      "▁antusiasm e",
      "▁v ari",
      "▁v oli",
      "▁man is.",
      "▁mur ah",
      "▁tur .",
      "▁le ga",
      "▁le vel",
      "▁menghar ga",
      "▁kaf e,",
      "▁selesai !",
      "▁berlatih .",
      "▁tertarik .",
      "▁tertarik ?",
      "▁bergabung .",
      "▁bel i.",
      "▁bel akang",
      "▁kr it",
      "▁pers pektif",
      "▁pers iapan",
      "▁lanjut !",
      "▁terk es",
      "▁terk enal",
      "▁*meny entuh",
      "▁sabar ,",
      "▁memasak ?",
      "▁kelompok .",
      "▁strategi .",
      "ec il",
      "ec ek",
      "▁komp leks",
      "▁panas nya.",
      "▁memikirkan mu",
      "▁ket emu",
      "▁terb iasa",
      "▁baca ,",
      "▁mereka ?",
      "▁mengg amb",
      "▁mengg ambarkan",
      "▁mengg anggu",
      "▁proses nya",
      "▁bantuan mu.",
      "▁sebentar ,",
      "▁sebentar ?",
      "▁oke .",
      "▁sar ap",
      "▁kok ,",
      "▁dir iku",
      "▁tr ik",
      "▁tadi .",
      "▁peduli .",
      "▁jelas ,",
      "▁memulai ?",
      "▁cat at",
      "▁Mem ang",
      "▁Mem beri",
      "▁Mem ahami",
      "▁cerit akan?",
      "▁*mengg oda",
      "▁*mengg ambarkan",
      "▁*mengg osok",
      "▁Ng omong-ngomong,",
      "▁manus ia.",
      "▁al is*",
      "▁mar ah,",
      "▁momen -momen",
      "emat ika",
      "▁sela in",
      "▁sela mat",
      "▁menurutmu ?",
      "▁keb ahagi",
      "▁terj ebak",
      "▁sekit ar.",
      "▁bersemangat !",
      "▁foto graf",
      "▁main kan?",
      "-p utar",
      "-p ura",
      "▁F oto",
      "▁ef ek",
      "▁sad ar,",
      "▁sad ari.",
      "▁solus i",
      "▁pes ona",
      "▁jad ikan",
      "▁bert ahan",
      "▁bert emu",
      "▁bert ahun",
      "▁heb at",
      "▁memper h",
      "▁diper baiki.",
      "▁Hai ,",
      "▁Ber ani",
      "▁minum an",
      "▁*Tersenyum *",
      "▁bermanfa at!",
      "▁keindahan nya.",
      "▁gimana ?",
      "▁pendaf tar",
      "▁bener -bener",
      "▁ku ba",
      "▁ku e.",
      "▁dil ema",
      "▁tonton .",
      "▁tonton ?",
      "▁hati ,",
      "▁ked ua",
      "▁ked uanya",
      "▁ked engarannya",
      "▁ins pirasi",
      "▁lalu ,",
      "▁kag et",
      "▁*Mengangguk *",
      "▁soal -soal",
      "▁membangunkan ku",
      "▁U dara",
      "▁U ntuk",
      "▁situ lah",
      "▁buk unya.",
      "▁kam era,",
      "▁kenangan .",
      "▁dit unjuk",
      "▁dit erima",
      "▁dit erim",
      "▁pl anet",
      "▁pad aku.",
      "▁pos isi",
      "▁langkah -l",
      "▁kelu ar.",
      "▁co aster",
      "▁dip elajari",
      "▁*memb alas",
      "▁perbeda an.",
      "▁lap angan",
      "▁lap ar,",
      "▁apa-apa ,",
      "▁rencanakan .",
      "▁rencanakan ?",
      "▁tersend iri,",
      "▁tersebut .",
      "▁maaf !",
      "▁kreati f.",
      "▁terjadi ,",
      "▁jadwal nya.",
      "▁diperl ukan",
      "▁pendaftaran ,",
      "▁buruk .",
      "▁basket .",
      "▁on igiri",
      "▁angg ap",
      "▁mengan d",
      "▁mengan alis",
      "▁tangan ,",
      "▁tamp ak",
      "▁sebaik nya",
      "▁menit .",
      "▁beradap tasi.",
      "▁berarti .",
      "▁memuas kan!",
      "▁car amu",
      "▁car anya",
      "▁ref leksi",
      "▁Sen in",
      "▁Seb agai",
      "▁Sama -sama",
      "▁ngerasa in",
      "▁menyes al*",
      "▁gr at",
      "▁air .",
      "▁cerah .",
      "▁pemrogr aman.",
      "▁rencan amu",
      "▁rencan anya",
      "▁rencan amu.",
      "▁malu ,",
      "▁meneman imu",
      "▁*Senyum *",
      "▁prakt is",
      "▁jawab an",
      "▁energi *",
      "▁ang kuh,",
      "▁kunc i",
      "▁deng erin",
      "▁pus ing",
      "▁pus ing.",
      "asar an*",
      "▁nikm ati.",
      "▁berenang .",
      "ump ul",
      "▁memecah kan",
      "▁TV ,",
      "▁Tempat nya",
      "▁merenung .",
      "▁Maaf kan",
      "ori al",
      "▁gun akan",
      "▁wakt umu",
      "▁sebenar nya",
      "▁pasta -nya",
      "▁*Ter tarik*",
      "▁visual nya",
      "▁tinggi .",
      "▁Film nya",
      "▁mister i.",
      "▁detail .",
      "▁pegun ungan",
      "▁kekalah an",
      "▁kekalah an,",
      "▁kesepi an.",
      "▁kesepi an?",
      "▁umum .",
      "▁dahulu .",
      "▁bu gar",
      "▁bu gar.",
      "▁bud aya",
      "▁bud aya.",
      "▁teg as",
      "▁teg as*",
      "▁nostalgi a*",
      "▁berani !",
      "umbuh kan",
      "▁lelah .",
      "▁habis .",
      "▁memuj i",
      "▁cod ing",
      "▁terp enting,",
      "▁membahas nya",
      "▁ram ai",
      "▁Sa yang",
      "▁Sa ins",
      "▁Sudah kah",
      "utar -putar",
      "▁Mat ematika",
      "▁atap .",
      "▁*bercanda *",
      "▁*mengh ibur*",
      "▁melew ati",
      "▁melew atkan",
      "▁mendalam *",
      "▁kerj akan.",
      "▁Terus kan",
      "▁bahan -bahan",
      "▁terus-ter us",
      "▁terus-ter usan",
      "▁*Men atapmu",
      "▁segan -segan",
      "▁selesa i.",
      "▁kelihat an",
      "▁kepuas an",
      "▁kepuas an*",
      "▁kehangat an",
      "▁kehangat an*",
      "▁terkej ut.",
      "▁graf is",
      "▁graf is.",
      "▁Viralin a",
      "▁sombong *",
      "▁jendela *",
      "▁kegembira an*",
      "▁bak at",
      "▁me ja",
      "▁mah ir",
      "▁maks imal.",
      "▁teb ing.",
      "▁tambah an.",
      "▁par kir",
      "▁pet unjuk.",
      "unt ungan",
      "▁aktif .",
      "▁sec angkir",
      "▁janj i",
      "▁bern apas",
      "tur ut",
      "▁hik ing",
      "tid ur",
      "tim is*",
      "▁Kem arin",
      "▁Keren !",
      "▁bayang kan.",
      "▁merind ing.",
      "▁Meny usun",
      "▁Makan an",
      "▁ngantuk .",
      "▁mengaj ari",
      "▁fant asi.",
      "▁sampa i.",
      "▁git ar",
      "▁gal ak",
      "▁gelap .",
      "▁bersa ing",
      "omun ikasi",
      "▁bebas .",
      "▁bicar akan",
      "▁Latih an",
      "▁keseimb angan.",
      "▁Ing at,",
      "▁prib adi",
      "▁present asi.",
      "▁*memba ca",
      "▁lew at",
      "▁lez at.",
      "▁arti *",
      "▁onlin e",
      "▁nikmat in",
      "▁intern asi",
      "▁programmer ,",
      "▁menungg umu",
      "▁perpustak aan",
      "▁berkontribus i",
      "▁ekstrakurikul er.",
      "-w arna",
      "nt erstel",
      "uv enir",
      "▁op timis*",
      "▁ov er",
      "▁impi an.",
      "▁out door",
      "▁seng g",
      "▁sna ck",
      "▁simb ol",
      "▁bid ang",
      "▁boar d",
      "▁mund ur",
      "▁kol eksi",
      "▁kinc ir",
      "akmu *",
      "▁dik unjungi",
      "▁deb at",
      "▁ding in.",
      "▁damp ak",
      "inti p",
      "▁teng ah,",
      "▁tik et",
      "▁tet api",
      "▁tut orial",
      "▁pam eran",
      "▁put ih",
      "▁por sinya",
      "▁pund akmu*",
      "▁pay ung",
      "▁*pen asaran*",
      "▁akad em",
      "▁seber apa",
      "▁menikm at",
      "▁menump uk.",
      "▁nila i",
      "▁bertuk ar",
      "▁beristirah at",
      "▁berhati -hati.",
      "▁berusah a.",
      "▁bercand a.",
      "▁lukis an",
      "▁hanc ur",
      "▁memain kan",
      "▁kepikir an",
      "▁kejut an",
      "▁capa i.",
      "▁cok l",
      "▁Kira -k",
      "▁terba wa",
      "▁terli bat",
      "▁terbar u.",
      "▁tertutu p*",
      "▁membantuk u",
      "▁rind u",
      "▁Sip ,",
      "▁Baru -baru",
      "▁ngamb ek",
      "▁nginget in",
      "▁mengangguk *",
      "▁sekeliling *",
      "▁*mencib ir*",
      "▁menyembuny ikan",
      "organ is",
      "▁sia-si a.",
      "▁ged ung",
      "▁geomet r",
      "▁wajahnya *",
      "▁bersep eda",
      "▁*berhar ap*",
      "▁Otak ku",
      "▁*mengelu arkan",
      "▁*mengeluh *",
      "▁melod i",
      "▁melepas kan",
      "▁Libur an",
      "▁Bayang in",
      "▁menjengk elkan*",
      "▁Panas nya",
      "▁berbic ara.",
      "▁keseru an.",
      "▁Yup ,",
      "▁coba-c oba",
      "▁*terpuk au*",
      "▁sering-s er",
      "▁satu-s atunya",
      "▁terus-m enerus",
      "▁Namun ,",
      "▁cerita-c erita",
      "▁tersinggung *",
      "▁malas-m alasan,",
      "▁duduk-d uduk",
      "▁berlebih an.",
      "▁siapa-si apa",
      "▁*menggoda *",
      "▁bertahun -tahun",
      "▁diterim a.",
      "▁langkah-l angkah",
      "▁Sama-sama !",
      "nterstel l"
    ]
  }
}